[PAD]	0
[UNK]	0
[BOS]	0
[EOS]	0
..	-0
▁“	-1
。”	-2
一个	-3
我们	-4
....	-5
他们	-6
没有	-7
?”	-8
什么	-9
现在	-10
:“	-11
孩子	-12
这个	-13
!”	-14
自己	-15
世界	-16
了一	-17
看到	-18
......	-19
**	-20
你们	-21
中的	-22
知道	-23
可能	-24
地球	-25
已经	-26
太阳	-27
的一	-28
,“	-29
就是	-30
的人	-31
时间	-32
那个	-33
这是	-34
起来	-35
人类	-36
上的	-37
这样	-38
程心	-39
可以	-40
不是	-41
宇宙	-42
太空	-43
大的	-44
到了	-45
他的	-46
出现	-47
开始	-48
这种	-49
罗辑	-50
最后	-51
一样	-52
这些	-53
两个	-54
东西	-55
如果	-56
所有	-57
只是	-58
****	-59
这时	-60
有一	-61
这里	-62
看着	-63
的大	-64
三体	-65
来的	-66
▁"	-67
那些	-68
发现	-69
还是	-70
人的	-71
它们	-72
国家	-73
文明	-74
进行	-75
是一	-76
部分	-77
很快	-78
只有	-79
自己的	-80
色的	-81
系统	-82
一次	-83
怎么	-84
人们	-85
孩子们	-86
然后	-87
飞船	-88
都是	-89
下来	-90
面的	-91
工作	-92
还有	-93
感觉	-94
信息	-95
出来	-96
研究	-97
这一	-98
了一个	-99
声音	-100
它的	-101
城市	-102
我的	-103
的是	-104
因为	-105
华华	-106
时代	-107
这么	-108
空间	-109
那么	-110
的事	-111
▁在	-112
——	-113
技术	-114
舰队	-115
问题	-116
出了	-117
汪淼	-118
出的	-119
完全	-120
也不	-121
同时	-122
消失	-123
的地	-124
突然	-125
......”	-126
地说	-127
一直	-128
进入	-129
是一个	-130
她的	-131
基地	-132
我们的	-133
产生	-134
世纪	-135
闪电	-136
在一	-137
成了	-138
林云	-139
的小	-140
应该	-141
任何	-142
所以	-143
速度	-144
计算	-145
需要	-146
正在	-147
那里	-148
当然	-149
以后	-150
只能	-151
存在	-152
目标	-153
方向	-154
不到	-155
真的	-156
仿佛	-157
生活	-158
在这	-159
发生	-160
社会	-161
戴维	-162
不能	-163
计划	-164
显示	-165
科学	-166
00	-167
周围	-168
那是	-169
整个	-170
行星	-171
下去	-172
。”“	-173
他们的	-174
认为	-175
小时	-176
不会	-177
许多	-178
长的	-179
▁我	-180
一种	-181
黑暗	-182
看看	-183
美国	-184
空中	-185
********	-186
三个	-187
生命	-188
不同	-189
最高	-190
的那	-191
眼睛	-192
由于	-193
也是	-194
发射	-195
点点	-196
目光	-197
文洁	-198
过去	-199
丁仪	-200
十分	-201
战争	-202
肯定	-203
立刻	-204
中国	-205
几个	-206
不可能	-207
你的	-208
历史	-209
纪元	-210
恒星	-211
引力	-212
是在	-213
博士	-214
告诉	-215
注意	-216
以前	-217
上去	-218
甚至	-219
工程	-220
成为	-221
叶文洁	-222
第一	-223
不知道	-224
球状	-225
的话	-226
武器	-227
距离	-228
太阳系	-229
不过	-230
接着	-231
通过	-232
的东西	-233
回答	-234
飞行	-235
一片	-236
第二	-237
球状闪电	-238
状态	-239
屏幕	-240
地上	-241
点点头	-242
后来	-243
光速	-244
几乎	-245
无法	-246
能够	-247
智子	-248
游戏	-249
似乎	-250
听到	-251
▁但	-252
作者	-253
是的	-254
下的	-255
觉得	-256
二十	-257
▁《	-258
了一下	-259
着一	-260
。"	-261
刚才	-262
感到	-263
成的	-264
公里	-265
计算机	-266
时候	-267
有人	-268
看到了	-269
世界的	-270
执政	-271
控制	-272
位置	-273
其他	-274
其实	-275
处于	-276
巨大的	-277
刘慈	-278
继续	-279
领导	-280
刘慈欣	-281
有一个	-282
变成	-283
AA	-284
中心	-285
发出	-286
好像	-287
运行	-288
那样	-289
的一个	-290
摇头	-291
▁作者	-292
第一次	-293
为了	-294
起了	-295
另一	-296
▁这	-297
年前	-298
面上	-299
一切	-300
小的	-301
大家	-302
将军	-303
有些	-304
爆炸	-305
,”	-306
轨道	-307
执政官	-308
虽然	-309
电脑	-310
一些	-311
全部	-312
情况	-313
想象	-314
总统	-315
其中	-316
对于	-317
来自	-318
再次	-319
不要	-320
像一	-321
加速	-322
天空	-323
首先	-324
力量	-325
过了	-326
会议	-327
这样的	-328
一起	-329
渐渐	-330
离开	-331
电话	-332
所有的	-333
一下	-334
的光	-335
都在	-336
显然	-337
变得	-338
到的	-339
多的	-340
星星	-341
为什么	-342
!"	-343
飞机	-344
下面	-345
结果	-346
面前	-347
希望	-348
那时	-349
看上去	-350
面壁	-351
出现了	-352
多少	-353
明白	-354
物理	-355
这次	-356
每个	-357
除了	-358
才能	-359
▁这时	-360
之间	-361
确实	-362
也许	-363
就在	-364
建筑	-365
有的	-366
过来	-367
上帝	-368
于是	-369
年轻	-370
上了	-371
说话	-372
长时间	-373
不可	-374
公民	-375
即使	-376
沉默	-377
外面	-378
父亲	-379
摇摇头	-380
动的	-381
10	-382
刚刚	-383
地看着	-384
爸爸	-385
住了	-386
克斯	-387
试验	-388
天明	-389
想到	-390
观察	-391
?!”	-392
当时	-393
到达	-394
理解	-395
超新	-396
的世界	-397
森林	-398
简单	-399
。“	-400
之前	-401
分钟	-402
复杂	-403
就像	-404
物质	-405
表面	-406
超新星	-407
电子	-408
选择	-409
很多	-410
云天明	-411
孩儿	-412
菲利	-413
说的	-414
目前	-415
菲利克斯	-416
之一	-417
政府	-418
走了	-419
大部分	-420
满了	-421
联合	-422
相信	-423
▁程心	-424
."	-425
并不	-426
能量	-427
来了	-428
自然	-429
我是	-430
妈妈	-431
年的	-432
真正	-433
一定	-434
透明	-435
地面	-436
理论	-437
去了	-438
...	-439
必须	-440
过程	-441
的地方	-442
的声音	-443
攻击	-444
后的	-445
后面	-446
思想	-447
冬眠	-448
我想	-449
人类的	-450
出一	-451
国的	-452
不知	-453
今天	-454
你是	-455
来说	-456
直升	-457
一帆	-458
现实	-459
了起来	-460
关一帆	-461
是什么	-462
重要	-463
随着	-464
也没有	-465
决定	-466
建立	-467
站在	-468
观测	-469
最高执政官	-470
发动	-471
空气	-472
另一个	-473
消失了	-474
安全	-475
小梦	-476
直升机	-477
方的	-478
旁边	-479
毁灭	-480
终于	-481
水滴	-482
你们的	-483
作用	-484
在这个	-485
有什么	-486
体的	-487
学家	-488
意识	-489
阳光	-490
仍然	-491
的孩子	-492
的时间	-493
上面	-494
蓝色	-495
而是	-496
并没有	-497
都不	-498
?"	-499
清楚	-500
朋友	-501
她们	-502
三十	-503
您的	-504
打开	-505
过的	-506
二维	-507
大厅	-508
太空中	-509
一阵	-510
形状	-511
正常	-512
一个人	-513
:"	-514
作为	-515
北京	-516
句话	-517
意义	-518
指挥	-519
永远	-520
要求	-521
危险	-522
主要	-523
关系	-524
包括	-525
喜欢	-526
坦克	-527
软件	-528
一般	-529
他说	-530
以为	-531
使用	-532
内部	-533
地方	-534
指着	-535
方式	-536
五十	-537
似的	-538
这就是	-539
FG	-540
探测	-541
看了	-542
精神	-543
普通	-544
的高	-545
千米	-546
生存	-547
的巨	-548
眼镜	-549
代表	-550
恐龙	-551
沃恩	-552
看不	-553
发动机	-554
的一切	-555
都没有	-556
的手	-557
航行	-558
一点	-559
大史	-560
结束	-561
回到	-562
国土	-563
大陆	-564
****************	-565
不了	-566
得很	-567
海洋	-568
变化	-569
容易	-570
恐惧	-571
者的	-572
南极	-573
电视	-574
结构	-575
远处	-576
北海	-577
大量	-578
走到	-579
好的	-580
我说	-581
身上	-582
图像	-583
天文	-584
意思	-585
样子	-586
就会	-587
蚂蚁	-588
基本	-589
恢复	-590
▁他	-591
主席	-592
共和	-593
出去	-594
来到	-595
穿过	-596
越来	-597
不断	-598
成功	-599
秒钟	-600
越来越	-601
一名	-602
一百	-603
停止	-604
章北海	-605
地问	-606
平静	-607
聚变	-608
轻轻	-609
会儿	-610
准备	-611
星环	-612
里面	-613
黑暗森林	-614
人都	-615
儿子	-616
得到	-617
盯着	-618
文明的	-619
一条	-620
公主	-621
相当	-622
面对	-623
原因	-624
启动	-625
无数	-626
电磁	-627
至少	-628
那一	-629
联合国	-630
军官	-631
同样	-632
形成	-633
根本	-634
运动	-635
?”“	-636
像是	-637
努力	-638
基础	-639
士兵	-640
特别	-641
艺术	-642
重新	-643
件事	-644
军队	-645
坐在	-646
奇怪	-647
维德	-648
金属	-649
在这里	-650
宇宙的	-651
留下	-652
笑着	-653
能力	-654
那种	-655
人员	-656
他在	-657
公元	-658
史强	-659
辐射	-660
唯一	-661
如此	-662
机器	-663
直到	-664
银河	-665
之中	-666
奥拉	-667
威慑	-668
数量	-669
模型	-670
身体	-671
办公	-672
发展	-673
白色	-674
缓缓	-675
在一起	-676
地球的	-677
医生	-678
大厦	-679
开了	-680
新的	-681
负责	-682
项目	-683
▁华华	-684
工程师	-685
东方	-686
外的	-687
好了	-688
星的	-689
可能是	-690
三体世界	-691
原子	-692
吞食	-693
就要	-694
我不	-695
找到	-696
而且	-697
宇宙中	-698
哪儿	-699
大气	-700
组织	-701
经过	-702
转向	-703
都有	-704
产生的	-705
的时候	-706
左右	-707
打击	-708
组合	-709
背景	-710
范围	-711
双眼	-712
屏幕上	-713
面壁者	-714
命令	-715
是个	-716
本来	-717
▁我们	-718
事情	-719
直接	-720
的速度	-721
看到的	-722
▁她	-723
把它	-724
不管	-725
参加	-726
抬头	-727
星空	-728
比如	-729
水娃	-730
老师	-731
走去	-732
还在	-733
发出的	-734
最大的	-735
设备	-736
转身	-737
完成	-738
移动	-739
部队	-740
首长	-741
▁当	-742
前的	-743
各种	-744
就能	-745
接近	-746
瞬间	-747
号的	-748
四个	-749
联系	-750
规模	-751
难以	-752
多了	-753
房间	-754
千万	-755
在那	-756
很难	-757
接触	-758
敌人	-759
滑膛	-760
确定	-761
舰长	-762
变成了	-763
干什么	-764
丽的	-765
实验	-766
爆发	-767
里的	-768
也没	-769
广阔	-770
电梯	-771
走进	-772
一步	-773
在地	-774
未来	-775
机会	-776
绝对	-777
起身	-778
高的	-779
先生	-780
只要	-781
哈哈	-782
超新星纪元	-783
国际	-784
声说	-785
很大	-786
战舰	-787
放到	-788
移民	-789
黑色的	-790
▁一	-791
别的	-792
我在	-793
环境	-794
考虑	-795
解释	-796
▁现在	-797
但在	-798
推进	-799
着的	-800
三维	-801
专业	-802
令人	-803
创造	-804
数学	-805
超级	-806
通讯	-807
有一种	-808
,"	-809
下了	-810
反射	-811
口气	-812
影响	-813
望远	-814
达到	-815
最后的	-816
现在的	-817
的目光	-818
时刻	-819
说着	-820
量子	-821
这一切	-822
光的	-823
几十	-824
带着	-825
故事	-826
方面	-827
至于	-828
边缘	-829
出来的	-830
望远镜	-831
女孩儿	-832
有引力	-833
导弹	-834
时的	-835
玩儿	-836
相比	-837
指指	-838
操作	-839
深处	-840
见到	-841
万有引力	-842
II	-843
一声	-844
使得	-845
内的	-846
画面	-847
窗口	-848
让我	-849
进来	-850
地球上	-851
内容	-852
大牙	-853
最近	-854
比亚	-855
等待	-856
航天	-857
白色的	-858
改变	-859
死亡	-860
每天	-861
红色	-862
记录	-863
大地	-864
大多	-865
数据	-866
现代	-867
的心	-868
太空城	-869
没有任何	-870
兴趣	-871
反应	-872
只剩	-873
子的	-874
总是	-875
脸上	-876
记得	-877
远的	-878
科学家	-879
?!	-880
二百	-881
小心	-882
谢谢	-883
在一个	-884
的感觉	-885
参谋	-886
各个	-887
熟悉	-888
要是	-889
让人	-890
▁他们	-891
了下来	-892
一眼	-893
万年	-894
之后	-895
光中	-896
战略	-897
木星	-898
责任	-899
周围的	-900
看不到	-901
也有	-902
仔细	-903
保持	-904
汽车	-905
走出	-906
我知道	-907
事实	-908
兴奋	-909
外星	-910
大校	-911
星云	-912
玻璃	-913
记忆	-914
雷迪	-915
但这	-916
慢慢	-917
清晰	-918
边的	-919
最后一	-920
不再	-921
了几	-922
亚兹	-923
人民	-924
他是	-925
属于	-926
日本	-927
什么都	-928
共和国	-929
它们的	-930
雷迪亚兹	-931
吃惊	-932
摧毁	-933
真实	-934
还没有	-935
不得	-936
作战	-937
前面	-938
十多	-939
另外	-940
有了	-941
材料	-942
让他	-943
世界上	-944
大人们	-945
全国	-946
办法	-947
定的	-948
广播	-949
的水	-950
红岸	-951
色彩	-952
见过	-953
桑比亚	-954
向前	-955
干扰	-956
照片	-957
看来	-958
太阳的	-959
介绍	-960
动着	-961
很好	-962
死了	-963
紧张	-964
终端	-965
质量	-966
重的	-967
防御	-968
小小的	-969
信号	-970
做的	-971
惊奇	-972
放在	-973
数字	-974
燃烧	-975
经历	-976
资料	-977
华北	-978
大会	-979
委员	-980
战场	-981
黑色	-982
▁罗辑	-983
哪里	-984
天线	-985
少校	-986
尘埃	-987
很少	-988
浮在	-989
灾难	-990
目的	-991
认识	-992
其中的	-993
主义	-994
半个	-995
思维	-996
持续	-997
条件	-998
某种	-999
核弹	-1000
元帅	-1001
可怕	-1002
回来	-1003
情报	-1004
早就	-1005
昨天	-1006
证明	-1007
一只	-1008
元首	-1009
地下	-1010
如同	-1011
形的	-1012
迅速	-1013
出了一	-1014
注意到	-1015
一位	-1016
一块	-1017
但他	-1018
帝国	-1019
我就	-1020
无限	-1021
生的	-1022
白冰	-1023
真是	-1024
者们	-1025
的位置	-1026
可以看到	-1027
区域	-1028
思考	-1029
战斗	-1030
政治	-1031
母亲	-1032
精确	-1033
组成	-1034
分之一	-1035
在那里	-1036
开始了	-1037
银河系	-1038
五个	-1039
利亚	-1040
卫星	-1041
在大	-1042
接受	-1043
月球	-1044
极其	-1045
的火	-1046
表现	-1047
西亚	-1048
这两	-1049
19	-1050
不起	-1051
力的	-1052
基因	-1053
如何	-1054
对着	-1055
恩斯	-1056
更加	-1057
用的	-1058
像一个	-1059
没什么	-1060
着一个	-1061
一颗	-1062
寒冷	-1063
所在	-1064
最大	-1065
最终	-1066
陷入	-1067
默默	-1068
年轻人	-1069
也在	-1070
我要	-1071
老人	-1072
般的	-1073
虚拟	-1074
辛妮	-1075
希恩斯	-1076
系统的	-1077
光年	-1078
制造	-1079
很有	-1080
想法	-1081
的海	-1082
直径	-1083
维持	-1084
说完	-1085
亮的	-1086
仍在	-1087
化的	-1088
四维	-1089
增加	-1090
急剧	-1091
新闻	-1092
本身	-1093
生物	-1094
百万	-1095
郑晨	-1096
附近	-1097
复杂的	-1098
上方	-1099
不动	-1100
伊依	-1101
关于	-1102
头发	-1103
眼前	-1104
第三	-1105
黑洞	-1106
人群	-1107
衣服	-1108
语言	-1109
集中	-1110
出现的	-1111
这是一个	-1112
▁那	-1113
两人	-1114
失败	-1115
广场	-1116
庄宇	-1117
晓梦	-1118
科幻	-1119
太空艇	-1120
引力波	-1121
使他	-1122
具有	-1123
大小	-1124
我也	-1125
是从	-1126
欧洲	-1127
烈的	-1128
王星	-1129
男人	-1130
物理学	-1131
一根	-1132
动物	-1133
子弹	-1134
拥有	-1135
看去	-1136
远方	-1137
▁汪淼	-1138
的信息	-1139
的研究	-1140
IN	-1141
上空	-1142
不行	-1143
危机	-1144
大脑	-1145
模拟	-1146
沿着	-1147
镜面	-1148
但现在	-1149
了解	-1150
名字	-1151
平面	-1152
建造	-1153
海中	-1154
疯狂	-1155
视着	-1156
这事	-1157
远远	-1158
办公室	-1159
的人们	-1160
),	-1161
升起	-1162
回去	-1163
天的	-1164
展开	-1165
手中	-1166
覆盖	-1167
还要	-1168
颜冬	-1169
了一些	-1170
出一个	-1171
发生了	-1172
的方向	-1173
充满	-1174
接收	-1175
机构	-1176
白的	-1177
说不	-1178
闪烁	-1179
上校	-1180
会场	-1181
减速	-1182
分别	-1183
子上	-1184
巨大	-1185
晚上	-1186
有时	-1187
正是	-1188
粒子	-1189
降落	-1190
世纪的	-1191
长长的	-1192
之外	-1193
使命	-1194
后者	-1195
实现	-1196
度的	-1197
艰难	-1198
进去	-1199
充满了	-1200
▁(	-1201
中央	-1202
人在	-1203
单位	-1204
喊道	-1205
大了	-1206
它是	-1207
知识	-1208
路上	-1209
每一个	-1210
让我们	-1211
蓝色空间	-1212
前方	-1213
可是	-1214
得多	-1215
心里	-1216
拿起	-1217
明显	-1218
给我	-1219
罗斯	-1220
这儿	-1221
▁戴维	-1222
第一个	-1223
但我	-1224
各国	-1225
四十	-1226
困难	-1227
在他	-1228
大人	-1229
失去	-1230
射击	-1231
板上	-1232
烧火	-1233
联邦	-1234
苏醒	-1235
这话	-1236
面积	-1237
沈华北	-1238
蓝色的	-1239
飞行员	-1240
▁......	-1241
RA	-1242
不在	-1243
光芒	-1244
好象	-1245
影像	-1246
怎样	-1247
想想	-1248
按照	-1249
沙漠	-1250
球体	-1251
行动	-1252
都被	-1253
时代的	-1254
关键	-1255
其它	-1256
刘欣	-1257
处理	-1258
宋诚	-1259
战士	-1260
星系	-1261
是否	-1262
眼中	-1263
神秘	-1264
秘书	-1265
规律	-1266
镜子	-1267
000	-1268
也就是	-1269
18	-1270
从未	-1271
报告	-1272
显得	-1273
这就	-1274
都能	-1275
伟大的	-1276
并不是	-1277
以上	-1278
你说	-1279
大学	-1280
姑娘	-1281
完了	-1282
张彬	-1283
程序	-1284
国家的	-1285
孩子的	-1286
从来	-1287
你在	-1288
全息	-1289
公司	-1290
受到	-1291
掩体	-1292
最初	-1293
表情	-1294
飞快	-1295
探测器	-1296
▁从	-1297
命运	-1298
圆圆	-1299
已被	-1300
年后	-1301
熄灭	-1302
表示	-1303
震惊	-1304
BRA	-1305
一切都	-1306
他们在	-1307
加速器	-1308
怎么样	-1309
更多的	-1310
那是一	-1311
BRAIN	-1312
台上	-1313
含义	-1314
女儿	-1315
法律	-1316
递给	-1317
驾驶	-1318
一会儿	-1319
想起了	-1320
有可能	-1321
不用	-1322
十几	-1323
参数	-1324
响起	-1325
或者	-1326
提出	-1327
文斯	-1328
讨论	-1329
证实	-1330
重力	-1331
雷球	-1332
我们要	-1333
的工作	-1334
红色的	-1335
20	-1336
交流	-1337
做出	-1338
分之	-1339
别人	-1340
在海	-1341
引起	-1342
模糊	-1343
比较	-1344
相同	-1345
说明	-1346
还能	-1347
宏电子	-1348
广阔的	-1349
感觉到	-1350
▁叶文洁	-1351
一天	-1352
呼吸	-1353
平线	-1354
得知	-1355
穿着	-1356
仿佛是	-1357
彻底	-1358
性的	-1359
泰勒	-1360
细节	-1361
适应	-1362
只剩下	-1363
委员会	-1364
的太阳	-1365
这是一	-1366
........	-1367
他那	-1368
咱们	-1369
寂静	-1370
意味	-1371
成员	-1372
我和	-1373
提供	-1374
是啊	-1375
是最	-1376
构成	-1377
澳大	-1378
物体	-1379
行的	-1380
说过	-1381
返回	-1382
了许多	-1383
外面的	-1384
真正的	-1385
澳大利亚	-1386
中间	-1387
到处	-1388
夜里	-1389
天啊	-1390
掌握	-1391
断了	-1392
点儿	-1393
神经	-1394
网络	-1395
美的	-1396
警报	-1397
资源	-1398
阶段	-1399
下来的	-1400
了一眼	-1401
十分钟	-1402
很大的	-1403
是因为	-1404
不多	-1405
不想	-1406
功率	-1407
实际	-1408
微微	-1409
教授	-1410
旋转	-1411
秘密	-1412
足够	-1413
▁丁仪	-1414
不同的	-1415
他们都	-1416
在空中	-1417
不时	-1418
他又	-1419
六个	-1420
只好	-1421
向上	-1422
宣布	-1423
心理	-1424
撞击	-1425
曲率	-1426
没人	-1427
灿烂	-1428
王子	-1429
穿梭	-1430
紧急	-1431
这座	-1432
透过	-1433
找到了	-1434
接着说	-1435
烧火工	-1436
的那个	-1437
组合体	-1438
上尉	-1439
不太	-1440
了吗	-1441
再说	-1442
存贮	-1443
寻找	-1444
年代	-1445
想起	-1446
投入	-1447
文化	-1448
望着	-1449
生态	-1450
而已	-1451
超过	-1452
集团	-1453
▁林云	-1454
小朋友	-1455
情况下	-1456
的技术	-1457
的眼睛	-1458
的问题	-1459
还有一	-1460
不停	-1461
原来	-1462
同志	-1463
地图	-1464
多么	-1465
威胁	-1466
子里	-1467
尽头	-1468
岁月	-1469
星际	-1470
秋生	-1471
纷纷	-1472
萨沙	-1473
试图	-1474
这条	-1475
静静	-1476
飞人	-1477
意识到	-1478
美丽的	-1479
了两	-1480
击中	-1481
即将	-1482
回事	-1483
坐标	-1484
大楼	-1485
小组	-1486
居然	-1487
平原	-1488
很不	-1489
文件	-1490
有关	-1491
百多	-1492
监视	-1493
经济	-1494
见的	-1495
设计	-1496
跟着	-1497
下面的	-1498
以后的	-1499
段时间	-1500
的人都	-1501
计划的	-1502
我们现在	-1503
五年	-1504
巨型	-1505
庄颜	-1506
放大	-1507
方案	-1508
梦中	-1509
琳娜	-1510
破坏	-1511
你知道	-1512
没有人	-1513
漫长的	-1514
————	-1515
--	-1516
▁1	-1517
一支	-1518
以下	-1519
双手	-1520
听着	-1521
夜空	-1522
女人	-1523
心中	-1524
抬起	-1525
相对	-1526
角度	-1527
遇到	-1528
雷电	-1529
高兴	-1530
在他们	-1531
的事情	-1532
这两个	-1533
的一部分	-1534
上百	-1535
仅仅	-1536
军事	-1537
分析	-1538
大约	-1539
她在	-1540
学生	-1541
斯科	-1542
是不	-1543
曾经	-1544
正确	-1545
破壁	-1546
身边	-1547
避免	-1548
城市的	-1549
大量的	-1550
天空中	-1551
是不是	-1552
男孩儿	-1553
的光芒	-1554
着什么	-1555
舰队的	-1556
默默地	-1557
”,	-1558
上升	-1559
也能	-1560
军人	-1561
几天	-1562
幸运	-1563
指令	-1564
监听	-1565
装甲	-1566
降低	-1567
难道	-1568
其他的	-1569
进行的	-1570
领导人	-1571
一张	-1572
分子	-1573
女孩	-1574
将在	-1575
工业	-1576
开的	-1577
影子	-1578
愿意	-1579
看出	-1580
等着	-1581
迷惑	-1582
音乐	-1583
马上	-1584
了一声	-1585
事实上	-1586
吞食者	-1587
听到了	-1588
穿梭机	-1589
过程中	-1590
飞船的	-1591
两个孩子	-1592
一时	-1593
上有	-1594
不敢	-1595
否则	-1596
回头	-1597
学校	-1598
是由	-1599
毕竟	-1600
画师	-1601
相互	-1602
计时	-1603
身后	-1604
都会	-1605
醒来	-1606
高速	-1607
一部分	-1608
发现了	-1609
只有一	-1610
就可以	-1611
的样子	-1612
出现了一	-1613
物理学家	-1614
13	-1615
15	-1616
冰块	-1617
同意	-1618
回忆	-1619
大片	-1620
娃娃	-1621
惊叫	-1622
把手	-1623
放弃	-1624
深的	-1625
激光	-1626
生产	-1627
的两	-1628
的长	-1629
称为	-1630
聚集	-1631
行了	-1632
这类	-1633
那你	-1634
都很	-1635
▁这个	-1636
▁这是	-1637
一直在	-1638
俄罗斯	-1639
回到了	-1640
我们在	-1641
这里的	-1642
中校	-1643
保证	-1644
孤独	-1645
想像	-1646
打算	-1647
是很	-1648
解决	-1649
是一种	-1650
的人类	-1651
许大校	-1652
这一点	-1653
这不是	-1654
进行了	-1655
透明的	-1656
一号	-1657
公路	-1658
地区	-1659
微笑	-1660
扩散	-1661
曹彬	-1662
程度	-1663
笼罩	-1664
还没	-1665
进了	-1666
队长	-1667
颤抖	-1668
历史上	-1669
基地的	-1670
怎么办	-1671
我现在	-1672
DC	-1673
一道	-1674
上来	-1675
以来	-1676
到来	-1677
制止	-1678
垃圾	-1679
是对	-1680
每次	-1681
等等	-1682
谈话	-1683
降临	-1684
也不会	-1685
行星的	-1686
过去了	-1687
很长时间	-1688
这个世界	-1689
一群	-1690
了个	-1691
了他	-1692
二号	-1693
你要	-1694
医院	-1695
市长	-1696
掠过	-1697
斯坦	-1698
星球	-1699
月亮	-1700
林肯	-1701
活着	-1702
激发	-1703
火焰	-1704
线的	-1705
这人	-1706
了一种	-1707
停止了	-1708
失去了	-1709
不好	-1710
专家	-1711
个人	-1712
传统	-1713
体积	-1714
古老	-1715
大西	-1716
景象	-1717
晶莹	-1718
海岸	-1719
理想	-1720
看法	-1721
纪念	-1722
自由	-1723
身份	-1724
随时	-1725
在那个	-1726
秘书长	-1727
程心和	-1728
让他们	-1729
》,	-1730
八十	-1731
学习	-1732
实在	-1733
家庭	-1734
有多	-1735
海面	-1736
统帅	-1737
释放	-1738
他们是	-1739
后面的	-1740
把自己	-1741
的太空	-1742
进一步	-1743
一千	-1744
也会	-1745
冷静	-1746
准确	-1747
她说	-1748
安慰	-1749
岩石	-1750
必要	-1751
成一	-1752
描述	-1753
有几	-1754
灯光	-1755
痛苦	-1756
稳定	-1757
行者	-1758
都没	-1759
了出来	-1760
伊文斯	-1761
应该是	-1762
我们是	-1763
看了看	-1764
破壁人	-1765
高大的	-1766
黑暗中	-1767
还有一个	-1768
主任	-1769
之处	-1770
亚洲	-1771
传来	-1772
六十	-1773
半球	-1774
发着	-1775
各位	-1776
它在	-1777
就不	-1778
建设	-1779
承认	-1780
明天	-1781
更多	-1782
水星	-1783
自动	-1784
重复	-1785
隧道	-1786
明白了	-1787
组成的	-1788
▁最高执政官	-1789
12	-1790
呆呆	-1791
回家	-1792
地对	-1793
外部	-1794
宁静	-1795
宇航	-1796
我会	-1797
标志	-1798
此时	-1799
相反	-1800
米的	-1801
脚步	-1802
行为	-1803
记者	-1804
通信	-1805
长长	-1806
露出	-1807
一样的	-1808
全世界	-1809
和小梦	-1810
大多数	-1811
存在的	-1812
所有人	-1813
的生活	-1814
能看到	-1815
▁孩子们	-1816
一座	-1817
一旦	-1818
一艘	-1819
不出	-1820
丝毫	-1821
也很	-1822
互相	-1823
他对	-1824
做为	-1825
共同	-1826
取得	-1827
吕刚	-1828
和平	-1829
坍缩	-1830
字幕	-1831
年龄	-1832
怀疑	-1833
恐怖	-1834
我对	-1835
探险	-1836
方法	-1837
时光	-1838
时期	-1839
膨胀	-1840
茫然	-1841
设想	-1842
诅咒	-1843
轰鸣	-1844
还不	-1845
这颗	-1846
那就	-1847
预测	-1848
风中	-1849
高度	-1850
之间的	-1851
到现在	-1852
的国家	-1853
说什么	-1854
飞行器	-1855
在太空中	-1856
爸爸妈妈	-1857
他把	-1858
体育	-1859
关闭	-1860
半径	-1861
去的	-1862
双方	-1863
土地	-1864
异常	-1865
抓住	-1866
按钮	-1867
流浪	-1868
用了	-1869
碎片	-1870
绿色	-1871
肥皂	-1872
航母	-1873
质子	-1874
那儿	-1875
部长	-1876
青铜	-1877
驱动	-1878
感兴趣	-1879
那就是	-1880
没有什么	-1881
14	-1882
上次	-1883
下午	-1884
两千	-1885
交换	-1886
北约	-1887
卫宁	-1888
向下	-1889
地把	-1890
对方	-1891
尽管	-1892
层的	-1893
崩溃	-1894
打量	-1895
整体	-1896
无力	-1897
海军	-1898
消灭	-1899
激动	-1900
玩具	-1901
玫瑰	-1902
的门	-1903
航迹	-1904
舷窗	-1905
英国	-1906
草原	-1907
规则	-1908
进化	-1909
魔鬼	-1910
——”	-1911
一个小	-1912
到这里	-1913
卡琳娜	-1914
小时后	-1915
静静地	-1916
...”	-1917
中国孩子	-1918
只是一个	-1919
亮了	-1920
动作	-1921
印象	-1922
妻子	-1923
强度	-1924
执剑	-1925
收到	-1926
是用	-1927
智慧	-1928
爱的	-1929
的气	-1930
美丽	-1931
让她	-1932
记住	-1933
遥远	-1934
▁于是	-1935
告诉我	-1936
第二天	-1937
这东西	-1938
太空中的	-1939
宇宙中的	-1940
这样一个	-1941
一辆	-1942
功能	-1943
场的	-1944
室中	-1945
对他	-1946
手枪	-1947
末日	-1948
概念	-1949
武装	-1950
火箭	-1951
电池	-1952
皇帝	-1953
间的	-1954
阶梯	-1955
他看到	-1956
得到了	-1957
显示出	-1958
的那种	-1959
站起来	-1960
这么说	-1961
一看	-1962
为一	-1963
十二	-1964
同步	-1965
墙壁	-1966
失重	-1967
奥运	-1968
对话	-1969
开发	-1970
手指	-1971
无所	-1972
是有	-1973
机枪	-1974
权力	-1975
温暖	-1976
炸弹	-1977
舰上	-1978
让你	-1979
这场	-1980
遥控	-1981
那条	-1982
上面的	-1983
产生了	-1984
剩下的	-1985
杨卫宁	-1986
核聚变	-1987
的宇宙	-1988
知道了	-1989
空中的	-1990
艺术家	-1991
进入了	-1992
地点点头	-1993
多长时间	-1994
数学模型	-1995
一把	-1996
五百	-1997
人了	-1998
仍是	-1999
但她	-2000
低温	-2001
十五	-2002
司令	-2003
四周	-2004
外界	-2005
护士	-2006
文字	-2007
日子	-2008
月光	-2009
死的	-2010
没了	-2011
犹豫	-2012
睡觉	-2013
空旷	-2014
脑袋	-2015
越过	-2016
那人	-2017
隐约	-2018
之外的	-2019
是为了	-2020
站起身	-2021
结束了	-2022
1.	-2023
不及	-2024
做了	-2025
冯帆	-2026
原始	-2027
号上	-2028
多次	-2029
成果	-2030
执行	-2031
挥手	-2032
星期	-2033
粮食	-2034
蒸汽	-2035
说了	-2036
世界中	-2037
他知道	-2038
在他的	-2039
有两个	-2040
有许多	-2041
”。	-2042
▁三	-2043
不对	-2044
也就	-2045
任务	-2046
会的	-2047
位于	-2048
你能	-2049
保护	-2050
像在	-2051
全体	-2052
发言	-2053
声明	-2054
帮助	-2055
房子	-2056
拯救	-2057
无际	-2058
早已	-2059
有三	-2060
每秒	-2061
毫无	-2062
理事	-2063
细的	-2064
细胞	-2065
落到	-2066
表达	-2067
错了	-2068
飞向	-2069
其他人	-2070
旁边的	-2071
消失在	-2072
的力量	-2073
什么东西	-2074
30	-2075
90	-2076
严重	-2077
也都	-2078
国内	-2079
坚持	-2080
复制	-2081
完整	-2082
审判	-2083
常常	-2084
忘了	-2085
惊恐	-2086
教师	-2087
活动	-2088
深夜	-2089
看清	-2090
短暂	-2091
终极	-2092
设施	-2093
逃亡	-2094
预料	-2095
风吹	-2096
不停地	-2097
了一切	-2098
倒计时	-2099
参谋长	-2100
就这样	-2101
是一片	-2102
构成的	-2103
特别是	-2104
生命的	-2105
程心的	-2106
这么多	-2107
遥远的	-2108
出现了一个	-2109
▁小	-2110
以及	-2111
你想	-2112
可见	-2113
大概	-2114
太平	-2115
学者	-2116
常伟	-2117
常规	-2118
开关	-2119
摩托	-2120
无关	-2121
无声	-2122
是我	-2123
机的	-2124
根据	-2125
水的	-2126
精致	-2127
绝望	-2128
航空	-2129
起飞	-2130
部的	-2131
都要	-2132
些什么	-2133
带来的	-2134
强烈的	-2135
悬浮在	-2136
手中的	-2137
百分之	-2138
笑着说	-2139
紧接着	-2140
自然选择	-2141
!!	-2142
一件	-2143
了好	-2144
伸出	-2145
具体	-2146
判断	-2147
加上	-2148
占据	-2149
发布	-2150
复活	-2151
夕阳	-2152
大海	-2153
宽姨	-2154
密封	-2155
形象	-2156
很像	-2157
忘记	-2158
把他	-2159
效应	-2160
检测	-2161
水中	-2162
测试	-2163
火星	-2164
球形	-2165
用于	-2166
的头	-2167
的白	-2168
纳米	-2169
见了	-2170
那颗	-2171
金字	-2172
隐藏	-2173
频率	-2174
世纪前	-2175
但他们	-2176
但没有	-2177
几秒钟	-2178
简单的	-2179
地摇摇头	-2180
虚拟公民	-2181
三体世界的	-2182
一动	-2183
中最	-2184
为止	-2185
人和	-2186
做到	-2187
化为	-2188
发光	-2189
号和	-2190
吸引	-2191
地向	-2192
好吧	-2193
密集	-2194
封闭	-2195
工具	-2196
带来	-2197
床上	-2198
总网	-2199
担心	-2200
无论	-2201
桌上	-2202
消息	-2203
消耗	-2204
物种	-2205
礼物	-2206
纽约	-2207
维度	-2208
胜利	-2209
走向	-2210
车上	-2211
门口	-2212
顶上	-2213
先行者	-2214
出现在	-2215
常伟思	-2216
怎么会	-2217
想象的	-2218
有很多	-2219
相当于	-2220
肥皂泡	-2221
这件事	-2222
金字塔	-2223
人类社会	-2224
地球文明	-2225
▁对	-2226
万个	-2227
不久	-2228
两天	-2229
中尉	-2230
亨特	-2231
你看	-2232
半天	-2233
变幻	-2234
大型	-2235
官员	-2236
幽灵	-2237
延绪	-2238
开来	-2239
您是	-2240
放下	-2241
智能	-2242
暴露	-2243
李白	-2244
窗外	-2245
纸条	-2246
群星	-2247
芯片	-2248
装备	-2249
视野	-2250
警察	-2251
那张	-2252
镜像	-2253
你是说	-2254
地平线	-2255
空气中	-2256
轨道上	-2257
东方延绪	-2258
了一会儿	-2259
什么地方	-2260
美国孩子	-2261
16	-2262
不解	-2263
举起	-2264
他就	-2265
光滑	-2266
到底	-2267
前进	-2268
原理	-2269
只手	-2270
呼叫	-2271
她那	-2272
小型	-2273
我没	-2274
时空	-2275
有过	-2276
标准	-2277
欢呼	-2278
死星	-2279
死神	-2280
洪水	-2281
液体	-2282
点燃	-2283
王国	-2284
的外	-2285
的最	-2286
翻译	-2287
蓝光	-2288
识别	-2289
赫尔	-2290
转过	-2291
这点	-2292
静止	-2293
顶端	-2294
飘浮	-2295
大厅中	-2296
我们就	-2297
我们都	-2298
所在的	-2299
方面的	-2300
的公民	-2301
离开了	-2302
这声音	-2303
17	-2304
。)	-2305
。。	-2306
他和	-2307
坎特	-2308
墓碑	-2309
头上	-2310
她是	-2311
接口	-2312
有两	-2313
服务	-2314
沙发	-2315
现出	-2316
红光	-2317
给你	-2318
莱尔	-2319
蓝天	-2320
输入	-2321
迹象	-2322
那块	-2323
错误	-2324
预警	-2325
龙卷	-2326
	-2327
!!”	-2328
二十多	-2329
公里的	-2330
大气层	-2331
太平洋	-2332
我觉得	-2333
显然是	-2334
来到了	-2335
留下的	-2336
的一次	-2337
的恒星	-2338
而不是	-2339
观察者	-2340
过去的	-2341
三体舰队	-2342
中的一个	-2343
共和国的	-2344
面壁计划	-2345
一人	-2346
不安	-2347
克雷	-2348
其余	-2349
吃的	-2350
坐下	-2351
夜色	-2352
安静	-2353
尾迹	-2354
幸福	-2355
态的	-2356
敏感	-2357
方阵	-2358
旅行	-2359
暂时	-2360
杨冬	-2361
比例	-2362
混乱	-2363
火球	-2364
类似	-2365
级的	-2366
落下	-2367
▁如果	-2368
▁	-2369
你怎么	-2370
在这种	-2371
夜空中	-2372
大规模	-2373
敌人的	-2374
是一名	-2375
等待着	-2376
银色的	-2377
也不知道	-2378
一半	-2379
一场	-2380
价值	-2381
入了	-2382
坠落	-2383
墙上	-2384
家里	-2385
思议	-2386
怪异	-2387
感受	-2388
手里	-2389
拍摄	-2390
拿着	-2391
核心	-2392
漫长	-2393
牛顿	-2394
独立	-2395
现象	-2396
突破	-2397
管道	-2398
米沙	-2399
而言	-2400
肉眼	-2401
脆弱	-2402
航程	-2403
获得	-2404
训练	-2405
起的	-2406
这片	-2407
这项	-2408
适合	-2409
那两	-2410
问道	-2411
阴影	-2412
随意	-2413
雷达	-2414
▁10	-2415
不断地	-2416
不过是	-2417
不需要	-2418
也不是	-2419
告诉你	-2420
在我们	-2421
完成了	-2422
对我们	-2423
小心翼	-2424
建筑物	-2425
持续了	-2426
是人类	-2427
的城市	-2428
的所有	-2429
程心说	-2430
那么多	-2431
什么时候	-2432
青铜时代	-2433
50	-2434
一大	-2435
三颗	-2436
五千	-2437
全面	-2438
出口	-2439
后果	-2440
听说	-2441
呜呜	-2442
四下	-2443
在我	-2444
地的	-2445
天花	-2446
对我	-2447
局长	-2448
已是	-2449
平衡	-2450
并非	-2451
形式	-2452
惠子	-2453
意见	-2454
打破	-2455
排险	-2456
整齐	-2457
有着	-2458
深水	-2459
漆黑	-2460
的不	-2461
空泡	-2462
答应	-2463
给他	-2464
荡荡	-2465
行驶	-2466
警卫	-2467
面临	-2468
▁大牙	-2469
低声说	-2470
克雷尔	-2471
冥王星	-2472
在内的	-2473
很容易	-2474
想到了	-2475
感到了	-2476
是一件	-2477
有一天	-2478
的空间	-2479
知道的	-2480
第二个	-2481
脑海中	-2482
这也是	-2483
这句话	-2484
飞快地	-2485
不可思议	-2486
中国太阳	-2487
23	-2488
▁你	-2489
不清	-2490
与此	-2491
丰富	-2492
了吧	-2493
优势	-2494
依塔	-2495
儿的	-2496
允许	-2497
古代	-2498
山谷	-2499
庄严	-2500
延续	-2501
愿望	-2502
战役	-2503
扰动	-2504
文学	-2505
早晨	-2506
正好	-2507
深渊	-2508
猜测	-2509
解读	-2510
诞生	-2511
连续	-2512
量的	-2513
随后	-2514
为一体	-2515
他没有	-2516
在地上	-2517
宏原子	-2518
我看到	-2519
有多少	-2520
的目标	-2521
的能量	-2522
第二次	-2523
起来的	-2524
运行的	-2525
龙卷风	-2526
小心翼翼	-2527
最后一次	-2528
看了一眼	-2529
▁正	-2530
两位	-2531
之类	-2532
人口	-2533
去找	-2534
反正	-2535
发送	-2536
因素	-2537
圆形	-2538
好奇	-2539
很小	-2540
循环	-2541
接过	-2542
斯肯	-2543
既然	-2544
永生	-2545
特征	-2546
穿透	-2547
PDC	-2548
了一阵	-2549
太空服	-2550
好像是	-2551
男孩子	-2552
的大脑	-2553
的巨大	-2554
默斯肯	-2555
我不知道	-2556
这个问题	-2557
什么都没有	-2558
一小	-2559
一遍	-2560
不大	-2561
会有	-2562
全球	-2563
冷却	-2564
反复	-2565
大大	-2566
将被	-2567
平方	-2568
建议	-2569
成长	-2570
星光	-2571
是吗	-2572
曲线	-2573
正中	-2574
法国	-2575
海上	-2576
满足	-2577
漂亮	-2578
电弧	-2579
电路	-2580
的黑	-2581
看见	-2582
离去	-2583
草坪	-2584
表明	-2585
装置	-2586
调查	-2587
通知	-2588
那位	-2589
针眼	-2590
钢铁	-2591
首脑	-2592
女孩子	-2593
房间里	-2594
抬起头	-2595
是这样	-2596
的存在	-2597
的结果	-2598
艘飞船	-2599
起来了	-2600
从来没有	-2601
天文单位	-2602
最后一个	-2603
一架	-2604
事件	-2605
伸手	-2606
保留	-2607
全是	-2608
反而	-2609
哲学	-2610
在她	-2611
大臣	-2612
好好	-2613
定位	-2614
导致	-2615
微观	-2616
快速	-2617
意外	-2618
我有	-2619
拒绝	-2620
放心	-2621
旋涡	-2622
暴雨	-2623
永恒	-2624
海水	-2625
燃料	-2626
痕迹	-2627
短短	-2628
管理	-2629
脚下	-2630
舒服	-2631
船长	-2632
要想	-2633
角落	-2634
造成	-2635
靠近	-2636
领域	-2637
飞出	-2638
首都	-2639
▁AA	-2640
了一层	-2641
他的话	-2642
在地球	-2643
意味着	-2644
灿烂的	-2645
两名	-2646
单元	-2647
发电	-2648
只需	-2649
吃饭	-2650
国王	-2651
在距	-2652
始皇	-2653
就算	-2654
尽快	-2655
层次	-2656
岩浆	-2657
感情	-2658
无人	-2659
浑身	-2660
灵魂	-2661
电波	-2662
相应	-2663
真空	-2664
示意	-2665
空军	-2666
聪明	-2667
被击	-2668
觉察	-2669
话筒	-2670
财富	-2671
走上	-2672
走廊	-2673
身影	-2674
这位	-2675
雪花	-2676
露珠	-2677
顺利	-2678
▁一个	-2679
上的一	-2680
分钟后	-2681
启动了	-2682
在她的	-2683
地看到	-2684
指挥官	-2685
新世界	-2686
的人群	-2687
的原因	-2688
的另一	-2689
的边缘	-2690
的那一	-2691
也不可能	-2692
光速飞船	-2693
......"	-2694
▁总	-2695
一生	-2696
三天	-2697
两次	-2698
人是	-2699
从事	-2700
休息	-2701
凌晨	-2702
凯西	-2703
出生	-2704
化了	-2705
叹息	-2706
向他	-2707
向外	-2708
周文	-2709
固定	-2710
女性	-2711
它那	-2712
小雨	-2713
尸体	-2714
山杉	-2715
已在	-2716
延伸	-2717
我将	-2718
探索	-2719
机械	-2720
来看	-2721
淡淡	-2722
深刻	-2723
点头	-2724
的主	-2725
的冰	-2726
统一	-2727
自我	-2728
蒸发	-2729
蛛丝	-2730
超导	-2731
跨越	-2732
躺在	-2733
转动	-2734
这块	-2735
队的	-2736
高能	-2737
不一样	-2738
主要是	-2739
但很快	-2740
刚才的	-2741
周文王	-2742
地面上	-2743
小心地	-2744
恢复了	-2745
成了一	-2746
排险者	-2747
斯科特	-2748
秦始皇	-2749
罗辑的	-2750
雪白的	-2751
就是一个	-2752
所有人都	-2753
整个宇宙	-2754
万人	-2755
上午	-2756
亿人	-2757
传递	-2758
信念	-2759
倒是	-2760
创世	-2761
去吧	-2762
各自	-2763
名的	-2764
和大	-2765
在于	-2766
大喊	-2767
季姆	-2768
家的	-2769
密密	-2770
尺度	-2771
山大	-2772
幅画	-2773
扩大	-2774
提醒	-2775
收集	-2776
显现	-2777
煤层	-2778
理由	-2779
白宫	-2780
石块	-2781
跟踪	-2782
进攻	-2783
进程	-2784
道德	-2785
那片	-2786
长达	-2787
陆战	-2788
飞去	-2789
高级	-2790
!”“	-2791
两个人	-2792
使他们	-2793
号基地	-2794
地盯着	-2795
大声说	-2796
大家都	-2797
布莱尔	-2798
很简单	-2799
我说过	-2800
推进器	-2801
普通人	-2802
瓦季姆	-2803
转过身	-2804
里面的	-2805
集团军	-2806
人类文明	-2807
小朋友们	-2808
IA	-2809
万多	-2810
三人	-2811
不像	-2812
个体	-2813
也要	-2814
了我	-2815
使其	-2816
借助	-2817
凝固	-2818
呵呵	-2819
命的	-2820
图象	-2821
壁上	-2822
声中	-2823
客厅	-2824
对象	-2825
就被	-2826
平时	-2827
强光	-2828
我能	-2829
放着	-2830
最多	-2831
最好	-2832
来源	-2833
植物	-2834
每一	-2835
比赛	-2836
氢弹	-2837
真理	-2838
竟然	-2839
笑了	-2840
紧紧	-2841
经验	-2842
莫夫	-2843
调整	-2844
连接	-2845
采取	-2846
长期	-2847
队员	-2848
▁人们	-2849
不得不	-2850
什么事	-2851
以前的	-2852
前面的	-2853
可以在	-2854
对不起	-2855
差不多	-2856
得到的	-2857
没想到	-2858
电磁波	-2859
罗辑说	-2860
负责人	-2861
那东西	-2862
▁关一帆	-2863
信息窗口	-2864
可以肯定	-2865
华华和小梦	-2866
上一	-2867
上千	-2868
不足	-2869
估计	-2870
几次	-2871
几百	-2872
别墅	-2873
区的	-2874
围绕	-2875
外形	-2876
失望	-2877
好吗	-2878
安装	-2879
密度	-2880
就把	-2881
山脉	-2882
平均	-2883
惟一	-2884
斯特	-2885
方形	-2886
明确	-2887
本书	-2888
极端	-2889
某个	-2890
正式	-2891
水平	-2892
深深	-2893
由此	-2894
移到	-2895
箱子	-2896
精度	-2897
编队	-2898
自转	-2899
讲述	-2900
说是	-2901
那名	-2902
鉴定	-2903
阵列	-2904
阿姨	-2905
随便	-2906
鼠标	-2907
100	-2908
▁沃恩	-2909
不存在	-2910
了这个	-2911
但我们	-2912
国土上	-2913
天花板	-2914
宇航员	-2915
我还是	-2916
电视上	-2917
的天空	-2918
的那样	-2919
背景上	-2920
孩子们的	-2921
............	-2922
▁又	-2923
▁第	-2924
一股	-2925
下方	-2926
与会	-2927
乔耶	-2928
伦娜	-2929
内存	-2930
几名	-2931
噩梦	-2932
大叫	-2933
天边	-2934
学的	-2935
宏观	-2936
少尉	-2937
干了	-2938
心的	-2939
悬浮	-2940
惊喜	-2941
手段	-2942
播放	-2943
某些	-2944
柔软	-2945
沃纳	-2946
沉思	-2947
火光	-2948
玉菲	-2949
理智	-2950
用手	-2951
登上	-2952
监测	-2953
笑容	-2954
舒适	-2955
袋中	-2956
诡异	-2957
辛根	-2958
边界	-2959
防线	-2960
陆军	-2961
障碍	-2962
集结	-2963
颜色	-2964
风雪	-2965
▁白冰	-2966
不远处	-2967
以至于	-2968
使自己	-2969
卫队长	-2970
在哪儿	-2971
太空的	-2972
奇怪的	-2973
已经是	-2974
的一种	-2975
目标的	-2976
范围内	-2977
这之前	-2978
这些人	-2979
这样做	-2980
为什么不	-2981
公元世纪	-2982
赫尔辛根	-2983
这个国家	-2984
这种感觉	-2985
▁您	-2986
一台	-2987
一团	-2988
习惯	-2989
他妈	-2990
动力	-2991
同一	-2992
嘴里	-2993
地层	-2994
处的	-2995
婴儿	-2996
学术	-2997
定律	-2998
尊敬	-2999
少数	-3000
年来	-3001
微波	-3002
教育	-3003
海的	-3004
温度	-3005
父母	-3006
白天	-3007
磁场	-3008
空白	-3009
继峰	-3010
置身	-3011
脸色	-3012
雪茄	-3013
食品	-3014
麻木	-3015
麻烦	-3016
也可以	-3017
什么的	-3018
以上的	-3019
但由于	-3020
但还是	-3021
全人类	-3022
古老的	-3023
在这儿	-3024
就没有	-3025
就行了	-3026
工作的	-3027
形成的	-3028
怎么能	-3029
成一个	-3030
战争中	-3031
更大的	-3032
现在已	-3033
申玉菲	-3034
真实的	-3035
轻轻地	-3036
远方的	-3037
信息大厦	-3038
只有一个	-3039
吞食帝国	-3040
)》	-3041
3.	-3042
▁【	-3043
上是	-3044
不由	-3045
中有	-3046
们的	-3047
作品	-3048
使它	-3049
冷冷	-3050
凉的	-3051
减少	-3052
区别	-3053
压力	-3054
启示	-3055
哪个	-3056
围着	-3057
媒体	-3058
学会	-3059
实体	-3060
宽阔	-3061
幸存	-3062
往事	-3063
情绪	-3064
惊叹	-3065
我去	-3066
把这	-3067
拿出	-3068
接到	-3069
操纵	-3070
本质	-3071
样的	-3072
生日	-3073
皮肤	-3074
站着	-3075
脱离	-3076
虫子	-3077
警告	-3078
那边	-3079
重大	-3080
限制	-3081
雾中	-3082
震动	-3083
▁对于	-3084
▁晓梦	-3085
▁水娃	-3086
▁眼镜	-3087
。""	-3088
下去了	-3089
与地球	-3090
反物质	-3091
另一种	-3092
可能的	-3093
唯一的	-3094
在一片	-3095
太空军	-3096
实验室	-3097
对他们	-3098
技术的	-3099
是怎么	-3100
注意力	-3101
的表面	-3102
身上的	-3103
那样的	-3104
一动不动	-3105
山杉惠子	-3106
那是一个	-3107
11	-3108
乱的	-3109
交通	-3110
代替	-3111
仪式	-3112
但从	-3113
低声	-3114
公众	-3115
关注	-3116
农业	-3117
分布	-3118
厚的	-3119
原则	-3120
又在	-3121
向后	-3122
完好	-3123
小学	-3124
山的	-3125
开着	-3126
想的	-3127
我来	-3128
戴着	-3129
扫描	-3130
振动	-3131
有个	-3132
有限	-3133
来回	-3134
格林	-3135
欣赏	-3136
比起	-3137
毫不	-3138
沉浸	-3139
热的	-3140
照耀	-3141
瓦西	-3142
电影	-3143
疲惫	-3144
瞄准	-3145
空灵	-3146
笑笑	-3147
糖城	-3148
耳机	-3149
行走	-3150
讲话	-3151
还会	-3152
道的	-3153
那天	-3154
采用	-3155
银色	-3156
问者	-3157
非洲	-3158
▁这天	-3159
三体人	-3160
个小时	-3161
人们都	-3162
你说的	-3163
反射着	-3164
和其他	-3165
回来了	-3166
大地上	-3167
宽大的	-3168
对自己	-3169
形成了	-3170
执剑人	-3171
的士兵	-3172
的大地	-3173
的形状	-3174
笑起来	-3175
表面的	-3176
▁菲利克斯	-3177
一笑	-3178
不上	-3179
不住	-3180
不够	-3181
中华	-3182
亮度	-3183
亿年	-3184
他用	-3185
保存	-3186
停下	-3187
十号	-3188
可笑	-3189
因此	-3190
太大	-3191
头盔	-3192
害怕	-3193
对此	-3194
小说	-3195
就有	-3196
居住	-3197
建成	-3198
弯曲	-3199
所说	-3200
扔到	-3201
抵抗	-3202
早在	-3203
星舰	-3204
有效	-3205
机舱	-3206
来得	-3207
母舰	-3208
潘寒	-3209
王宫	-3210
的三	-3211
着了	-3212
着陆	-3213
石头	-3214
研制	-3215
稀疏	-3216
童年	-3217
纤维	-3218
英语	-3219
走来	-3220
足以	-3221
轻松	-3222
辈子	-3223
鞠躬	-3224
香皂	-3225
魔戒	-3226
黄色	-3227
III	-3228
▁你们	-3229
▁然后	-3230
一个个	-3231
乱纪元	-3232
他已经	-3233
几个人	-3234
危险的	-3235
即使在	-3236
因斯坦	-3237
大小的	-3238
已经很	-3239
才知道	-3240
提出的	-3241
未来的	-3242
电子战	-3243
的机会	-3244
社会的	-3245
第一批	-3246
陈继峰	-3247
曲率驱动	-3248
没有回答	-3249
这个时代	-3250
27	-3251
不少	-3252
们都	-3253
公布	-3254
冲锋	-3255
列夫	-3256
力地	-3257
古典	-3258
只在	-3259
同学	-3260
圆柱	-3261
在两	-3262
大于	-3263
对了	-3264
屏蔽	-3265
引爆	-3266
悬崖	-3267
才是	-3268
承受	-3269
拖着	-3270
掉了	-3271
暗的	-3272
机场	-3273
柔和	-3274
欢迎	-3275
水晶	-3276
流逝	-3277
火的	-3278
点上	-3279
爷爷	-3280
真诚	-3281
眼神	-3282
童话	-3283
笑声	-3284
缓慢	-3285
羽毛	-3286
航线	-3287
舰体	-3288
萨伊	-3289
螺旋	-3290
走过	-3291
赵雨	-3292
陶醉	-3293
200	-3294
加速度	-3295
去哪儿	-3296
可能性	-3297
响起了	-3298
开始时	-3299
我已经	-3300
打开了	-3301
把它们	-3302
接下来	-3303
爆炸声	-3304
生活在	-3305
的人生	-3306
的大气	-3307
的部分	-3308
的阳光	-3309
的高度	-3310
看不出	-3311
研究的	-3312
空荡荡	-3313
这里是	-3314
那么大	-3315
与此同时	-3316
了几秒钟	-3317
太阳系的	-3318
我们应该	-3319
是不可能	-3320
架直升机	-3321
爱因斯坦	-3322
玫瑰星云	-3323
37	-3324
▁审	-3325
一段	-3326
不止	-3327
为此	-3328
云层	-3329
人生	-3330
仪器	-3331
但是	-3332
你就	-3333
候选	-3334
具备	-3335
冲击	-3336
包含	-3337
向着	-3338
回了	-3339
均匀	-3340
型的	-3341
幻觉	-3342
强烈	-3343
心灵	-3344
性质	-3345
成立	-3346
我看	-3347
抱着	-3348
拉着	-3349
无线	-3350
期间	-3351
朦胧	-3352
梦想	-3353
概率	-3354
榴弹	-3355
气象	-3356
沉睡	-3357
灰尘	-3358
甲板	-3359
空的	-3360
老头	-3361
自身	-3362
落日	-3363
象征	-3364
足球	-3365
运输	-3366
闪闪	-3367
飞星	-3368
▁智子	-3369
▁由于	-3370
一定要	-3371
万千米	-3372
两个月	-3373
什么呢	-3374
你可以	-3375
保持着	-3376
已经被	-3377
平原上	-3378
年时间	-3379
庞大的	-3380
恒星的	-3381
战争的	-3382
打量着	-3383
普通的	-3384
来不及	-3385
格莫夫	-3386
武器的	-3387
沙发上	-3388
现在是	-3389
运动员	-3390
▁审问者	-3391
三体文明	-3392
两个世纪	-3393
孩子们都	-3394
完全不同	-3395
总工程师	-3396
我们可以	-3397
▁虚拟公民	-3398
球状闪电的	-3399
▁“......	-3400
(1	-3401
▁法	-3402
一句	-3403
上级	-3404
不错	-3405
井口	-3406
伊甸	-3407
体系	-3408
你还	-3409
公开	-3410
军装	-3411
冰沙	-3412
冷的	-3413
冷酷	-3414
初步	-3415
卡奇	-3416
变为	-3417
她又	-3418
宏伟	-3419
定了	-3420
家伙	-3421
康明	-3422
很远	-3423
想了	-3424
成熟	-3425
打断	-3426
拉开	-3427
支撑	-3428
政委	-3429
晨光	-3430
李民	-3431
树枝	-3432
毕业	-3433
渴望	-3434
火车	-3435
点的	-3436
玉莲	-3437
理会	-3438
留在	-3439
直觉	-3440
碎块	-3441
祭坛	-3442
等于	-3443
自行	-3444
苏联	-3445
袭击	-3446
详细	-3447
这也	-3448
远离	-3449
道理	-3450
部门	-3451
钢印	-3452
闪光	-3453
陨石	-3454
面罩	-3455
风度	-3456
黄昏	-3457
一下子	-3458
一只手	-3459
下一步	-3460
低光速	-3461
你应该	-3462
卡奇卡	-3463
历史的	-3464
可怕的	-3465
同一个	-3466
向他们	-3467
好玩儿	-3468
审判日	-3469
对这个	-3470
布满了	-3471
我真的	-3472
所说的	-3473
把他们	-3474
把目光	-3475
收到了	-3476
无声地	-3477
李民生	-3478
每个人	-3479
沉默了	-3480
生活的	-3481
的事儿	-3482
空间中	-3483
装甲车	-3484
轰鸣声	-3485
造成的	-3486
那两个	-3487
十分之一	-3488
发现自己	-3489
行星防御	-3490
低温艺术家	-3491
2.	-3492
ER	-3493
一面	-3494
下车	-3495
与他	-3496
中断	-3497
乎乎	-3498
九十	-3499
也被	-3500
了些	-3501
亚历	-3502
交接	-3503
亲自	-3504
他还	-3505
但那	-3506
你不	-3507
你会	-3508
保卫	-3509
全民	-3510
刚从	-3511
加入	-3512
北美	-3513
各大	-3514
国务	-3515
国防	-3516
图形	-3517
地狱	-3518
增大	-3519
大门	-3520
天堂	-3521
安排	-3522
密的	-3523
对这	-3524
帐篷	-3525
悲哀	-3526
我只	-3527
我还	-3528
摆脱	-3529
方便	-3530
方舟	-3531
歼击	-3532
相距	-3533
看得	-3534
纸上	-3535
血液	-3536
诺伊	-3537
赤道	-3538
超越	-3539
身材	-3540
轰炸	-3541
迎接	-3542
金斯	-3543
长叹	-3544
饕餮	-3545
首相	-3546
之所以	-3547
人们的	-3548
从这里	-3549
以为然	-3550
伊甸园	-3551
信息的	-3552
公元钟	-3553
工程的	-3554
年轻的	-3555
当然是	-3556
我们将	-3557
我只是	-3558
时间内	-3559
熟悉的	-3560
的大陆	-3561
相同的	-3562
眼前的	-3563
确实是	-3564
给你们	-3565
给我们	-3566
达到了	-3567
这只是	-3568
飞摩托	-3569
三体星系	-3570
再也没有	-3571
南极大陆	-3572
站了起来	-3573
这些东西	-3574
引力波发射	-3575
2,	-3576
▁号	-3577
三百	-3578
上看	-3579
严格	-3580
之下	-3581
事故	-3582
享受	-3583
人数	-3584
仰望	-3585
做梦	-3586
充分	-3587
加纳	-3588
十一	-3589
华盛	-3590
可怜	-3591
塑料	-3592
天体	-3593
射线	-3594
岁的	-3595
并且	-3596
引发	-3597
愤怒	-3598
我很	-3599
招呼	-3600
挣扎	-3601
果然	-3602
淹没	-3603
漂浮	-3604
烟斗	-3605
猛地	-3606
瓦纳	-3607
的前	-3608
耳边	-3609
脉冲	-3610
蜘蛛	-3611
起航	-3612
运转	-3613
黑域	-3614
500	-3615
PIA	-3616
▁其实	-3617
▁随着	-3618
一个大	-3619
丁仪说	-3620
三个人	-3621
也许是	-3622
他的手	-3623
光速的	-3624
华华说	-3625
华盛顿	-3626
发光的	-3627
奥运会	-3628
强大的	-3629
恒纪元	-3630
慢慢地	-3631
我们能	-3632
把这个	-3633
收到的	-3634
时间的	-3635
智子的	-3636
木星的	-3637
然后又	-3638
的那些	-3639
空间的	-3640
绿色的	-3641
证实了	-3642
诺伊曼	-3643
这一次	-3644
遥控站	-3645
重要的	-3646
面对着	-3647
黄色的	-3648
的小朋友	-3649
赫尔辛根默斯肯	-3650
%)	-3651
99	-3652
一排	-3653
不不	-3654
两根	-3655
两眼	-3656
严寒	-3657
严肃	-3658
中子	-3659
举行	-3660
他也	-3661
令他	-3662
你也	-3663
信心	-3664
值得	-3665
停了	-3666
停在	-3667
入侵	-3668
出于	-3669
剩下	-3670
十字	-3671
呼啸	-3672
大声	-3673
天气	-3674
安乐	-3675
差别	-3676
引擎	-3677
弗雷	-3678
形势	-3679
我问	-3680
摇晃	-3681
星海	-3682
有所	-3683
望去	-3684
朱汉	-3685
极力	-3686
模式	-3687
步枪	-3688
深度	-3689
界面	-3690
置信	-3691
联盟	-3692
舱门	-3693
虚弱	-3694
西北	-3695
记载	-3696
贝纳	-3697
身躯	-3698
这不	-3699
通向	-3700
那次	-3701
镜头	-3702
队列	-3703
集群	-3704
▁正文	-3705
之类的	-3706
了一次	-3707
传来的	-3708
冈瓦纳	-3709
出来了	-3710
占据了	-3711
号上的	-3712
告诉他	-3713
大爆炸	-3714
对人类	-3715
广场上	-3716
引起了	-3717
很奇怪	-3718
我没有	-3719
林云说	-3720
正常的	-3721
的基础	-3722
的第一	-3723
真的是	-3724
解释说	-3725
走过来	-3726
这使得	-3727
那个大	-3728
都可以	-3729
问题的	-3730
高高的	-3731
▁程心和	-3732
不以为然	-3733
世界上最	-3734
外星文明	-3735
天文学家	-3736
孩子世界	-3737
我们还是	-3738
所有的人	-3739
控制中心	-3740
死神永生	-3741
是什么样子	-3742
————————	-3743
▁车	-3744
不见	-3745
事儿	-3746
人家	-3747
他向	-3748
伟大	-3749
兹罗	-3750
出版	-3751
利用	-3752
动了	-3753
十三	-3754
哥哥	-3755
因而	-3756
困惑	-3757
奇迹	-3758
室的	-3759
寻常	-3760
将是	-3761
尽量	-3762
干净	-3763
年了	-3764
底部	-3765
当他	-3766
当年	-3767
忍受	-3768
快乐	-3769
情景	-3770
扶着	-3771
摄影	-3772
散步	-3773
无意	-3774
是他	-3775
是要	-3776
桌子	-3777
歌者	-3778
民族	-3779
深入	-3780
清洁	-3781
玩笑	-3782
登记	-3783
白痴	-3784
真有	-3785
窒息	-3786
简短	-3787
级别	-3788
耀眼	-3789
考察	-3790
能在	-3791
起伏	-3792
车辆	-3793
通了	-3794
那几	-3795
销毁	-3796
长大	-3797
间隔	-3798
集体	-3799
万公里	-3800
中看到	-3801
你现在	-3802
列夫森	-3803
反应堆	-3804
土地上	-3805
在上面	-3806
地发现	-3807
孩子都	-3808
微笑着	-3809
我们会	-3810
打电话	-3811
找不到	-3812
政府的	-3813
斐兹罗	-3814
显得很	-3815
朱汉杨	-3816
父亲的	-3817
理解的	-3818
的思想	-3819
空间站	-3820
纪念碑	-3821
能不能	-3822
近距离	-3823
面前的	-3824
上的一个	-3825
威慑纪元	-3826
感觉自己	-3827
计算机的	-3828
行星防御理事	-3829
0.	-3830
21	-3831
64	-3832
▁A	-3833
▁大	-3834
一脸	-3835
一致	-3836
三千	-3837
不觉	-3838
低沉	-3839
先进	-3840
卫明	-3841
又说	-3842
台阶	-3843
地毯	-3844
外交	-3845
娃们	-3846
完毕	-3847
巨人	-3848
扭头	-3849
把她	-3850
把握	-3851
措施	-3852
无疑	-3853
更是	-3854
来时	-3855
法庭	-3856
清理	-3857
物馆	-3858
的波	-3859
的电	-3860
直线	-3861
真想	-3862
禁止	-3863
种子	-3864
简洁	-3865
累了	-3866
缺少	-3867
美妙	-3868
自杀	-3869
西方	-3870
谁都	-3871
走后	-3872
车里	-3873
这艘	-3874
阻止	-3875
陌生	-3876
隐喻	-3877
震撼	-3878
霍普	-3879
黎明	-3880
一时间	-3881
上世纪	-3882
亲爱的	-3883
你真的	-3884
像一只	-3885
平面上	-3886
心中的	-3887
惊人的	-3888
我们不	-3889
我们也	-3890
海王星	-3891
状态的	-3892
的一角	-3893
的内容	-3894
的历史	-3895
的地下	-3896
的方式	-3897
的时代	-3898
的距离	-3899
目的地	-3900
社会学	-3901
类似于	-3902
置身于	-3903
认出了	-3904
令人难以	-3905
地球上的	-3906
科学家们	-3907
霍普金斯	-3908
领导者们	-3909
个天文单位	-3910
呆呆地看着	-3911
超新星爆发	-3912
▁超新星纪元	-3913
▁与	-3914
▁二	-3915
一边	-3916
中微	-3917
代码	-3918
使她	-3919
使我	-3920
全身	-3921
分辨	-3922
变形	-3923
吴岳	-3924
地核	-3925
头顶	-3926
夹克	-3927
好多	-3928
宫殿	-3929
工厂	-3930
年中	-3931
座位	-3932
得不	-3933
微型	-3934
指向	-3935
放置	-3936
效果	-3937
方程	-3938
是以	-3939
机和	-3940
极了	-3941
枪声	-3942
正如	-3943
死去	-3944
活儿	-3945
涉及	-3946
清澈	-3947
演习	-3948
牺牲	-3949
状的	-3950
登陆	-3951
的热	-3952
神话	-3953
结论	-3954
给了	-3955
给她	-3956
舱内	-3957
船上	-3958
蜡烛	-3959
被烧	-3960
警官	-3961
警长	-3962
证据	-3963
说出	-3964
走吧	-3965
身处	-3966
轻易	-3967
进步	-3968
送到	-3969
逼近	-3970
醒目	-3971
陛下	-3972
飞到	-3973
高波	-3974
黑白	-3975
齿哥	-3976
▁母亲	-3977
下一个	-3978
不能再	-3979
也一样	-3980
仰望着	-3981
仿佛在	-3982
传统的	-3983
停下来	-3984
冲锋枪	-3985
几乎是	-3986
到一个	-3987
博物馆	-3988
可见光	-3989
多小时	-3990
已经在	-3991
开始后	-3992
微纪元	-3993
我们有	-3994
才发现	-3995
显示屏	-3996
有一半	-3997
机器人	-3998
沉默着	-3999
的一片	-4000
的变化	-4001
的地面	-4002
的大小	-4003
科元帅	-4004
程心问	-4005
米左右	-4006
莫斯科	-4007
这一天	-4008
▁云天明	-4009
不知不觉	-4010
注意到了	-4011
知道自己	-4012
该怎么办	-4013
破壁人二号	-4014
列夫森科元帅	-4015
1,	-4016
25	-4017
ce	-4018
一手	-4019
不懂	-4020
不着	-4021
中部	-4022
之上	-4023
之夜	-4024
事业	-4025
亮着	-4026
人工	-4027
会上	-4028
但要	-4029
你好	-4030
倾向	-4031
内脏	-4032
分配	-4033
列车	-4034
利的	-4035
力气	-4036
劳动	-4037
厚度	-4038
去看	-4039
合适	-4040
壮观	-4041
头部	-4042
女王	-4043
对你	-4044
已有	-4045
干的	-4046
平淡	-4047
形态	-4048
情地	-4049
我把	-4050
手电	-4051
拥抱	-4052
推测	-4053
提示	-4054
是谁	-4055
服的	-4056
极限	-4057
梦幻	-4058
死于	-4059
气候	-4060
破裂	-4061
笑话	-4062
符合	-4063
胎儿	-4064
胶卷	-4065
能把	-4066
街上	-4067
要不	-4068
说法	-4069
躯体	-4070
这张	-4071
通道	-4072
那只	-4073
那座	-4074
重点	-4075
钢盔	-4076
雪白	-4077
革命	-4078
黑点	-4079
LER	-4080
▁国家	-4081
▁奥拉	-4082
了一半	-4083
从这个	-4084
会议上	-4085
可现在	-4086
小行星	-4087
建立了	-4088
我可以	-4089
我认为	-4090
显示着	-4091
海面上	-4092
瓦西里	-4093
的一生	-4094
的含义	-4095
的地球	-4096
的金属	-4097
着一条	-4098
缓缓地	-4099
走进了	-4100
这孩子	-4101
降临派	-4102
亚历山大	-4103
变成了一	-4104
工作人员	-4105
想象中的	-4106
摇摇头说	-4107
现在已经	-4108
百分之一	-4109
航空母舰	-4110
觉得自己	-4111
▁两个孩子	-4112
▁............	-4113
?“	-4114
▁是	-4115
▁有	-4116
一亿	-4117
一口	-4118
万吨	-4119
两种	-4120
两者	-4121
两颗	-4122
代价	-4123
但也	-4124
低谷	-4125
傻瓜	-4126
先祖	-4127
入口	-4128
关上	-4129
军方	-4130
几千	-4131
分为	-4132
加工	-4133
包裹	-4134
十个	-4135
卫兵	-4136
发表	-4137
同事	-4138
后又	-4139
嗡嗡	-4140
四百	-4141
在高	-4142
地心	-4143
坚决	-4144
天使	-4145
奇点	-4146
它将	-4147
宗教	-4148
寒战	-4149
对它	-4150
导轨	-4151
封锁	-4152
小了	-4153
就象	-4154
很久	-4155
得太	-4156
想着	-4157
我所	-4158
戴上	-4159
指示	-4160
推开	-4161
摄像	-4162
收拾	-4163
放射	-4164
敬畏	-4165
敬礼	-4166
文物	-4167
无形	-4168
时侯	-4169
林格	-4170
格兰	-4171
步兵	-4172
气体	-4173
污染	-4174
烟雾	-4175
特点	-4176
的路	-4177
眼泪	-4178
睁开	-4179
移开	-4180
第四	-4181
耳朵	-4182
肩膀	-4183
背后	-4184
船队	-4185
补充	-4186
请求	-4187
财产	-4188
贵的	-4189
这段	-4190
麻麻	-4191
黑夜	-4192
(1)	-4193
▁就在	-4194
一个月	-4195
一点儿	-4196
三十多	-4197
不明白	-4198
个孩子	-4199
中微子	-4200
中心的	-4201
乔加纳	-4202
全国的	-4203
办公桌	-4204
双眼睛	-4205
只能在	-4206
史以来	-4207
后来的	-4208
地看了	-4209
大量子	-4210
完成的	-4211
已没有	-4212
弗雷斯	-4213
意识中	-4214
或者说	-4215
打了个	-4216
无际的	-4217
林云的	-4218
消失的	-4219
的图像	-4220
的状态	-4221
看起来	-4222
美国人	-4223
肯定是	-4224
行动的	-4225
被摧毁	-4226
这么大	-4227
集中到	-4228
▁第二天	-4229
半个世纪	-4230
响了起来	-4231
太空电梯	-4232
密密麻麻	-4233
屏幕上的	-4234
每个人都	-4235
电磁辐射	-4236
那是什么	-4237
26	-4238
▁B	-4239
三亿	-4240
上海	-4241
了指	-4242
人体	-4243
从中	-4244
但它	-4245
低头	-4246
低的	-4247
体会	-4248
停泊	-4249
光点	-4250
光粒	-4251
冒险	-4252
切尔	-4253
到过	-4254
加快	-4255
包围	-4256
占领	-4257
反对	-4258
口口	-4259
呈现	-4260
咒语	-4261
喃喃	-4262
固态	-4263
坐着	-4264
坚定	-4265
夜晚	-4266
室里	-4267
对面	-4268
封信	-4269
尽的	-4270
开枪	-4271
微的	-4272
态度	-4273
我又	-4274
所需	-4275
投票	-4276
折磨	-4277
抽象	-4278
挂在	-4279
摇篮	-4280
摸着	-4281
收回	-4282
放的	-4283
故障	-4284
无损	-4285
日的	-4286
映着	-4287
晶体	-4288
更为	-4289
欲望	-4290
水面	-4291
波江	-4292
游乐	-4293
满意	-4294
狄奥	-4295
真相	-4296
着头	-4297
神奇	-4298
第五	-4299
细看	-4300
翅膀	-4301
草地	-4302
试试	-4303
资格	-4304
走的	-4305
超重	-4306
轮廓	-4307
辉煌	-4308
过分	-4309
进展	-4310
银光	-4311
镜片	-4312
顺着	-4313
驱逐	-4314
高压	-4315
▁所以	-4316
一件事	-4317
下去的	-4318
不多的	-4319
了口气	-4320
但这次	-4321
候选人	-4322
同样的	-4323
在阳光	-4324
地面的	-4325
夜色中	-4326
寒冷的	-4327
尘埃云	-4328
就在这	-4329
尽可能	-4330
指了指	-4331
放弃了	-4332
明显的	-4333
星环城	-4334
是一位	-4335
是那么	-4336
最高的	-4337
有力的	-4338
核武器	-4339
沉重的	-4340
没关系	-4341
现实的	-4342
神秘的	-4343
笑了笑	-4344
罗辑问	-4345
说不定	-4346
走到了	-4347
走过去	-4348
距离上	-4349
远远地	-4350
中华人民	-4351
全体公民	-4352
出了一个	-4353
哈哈哈哈	-4354
很快发现	-4355
整个世界	-4356
留下来的	-4357
的大部分	-4358
还有什么	-4359
重要的是	-4360
我们的世界	-4361
4.	-4362
▁四	-4363
▁请	-4364
七十	-4365
下降	-4366
两只	-4367
人马	-4368
今后	-4369
他问	-4370
伤害	-4371
元素	-4372
医学	-4373
厘米	-4374
味道	-4375
喷口	-4376
壁炉	-4377
失效	-4378
她和	-4379
威力	-4380
实施	-4381
宴会	-4382
宿舍	-4383
少了	-4384
巨响	-4385
帕克	-4386
度过	-4387
归纳	-4388
很高	-4389
心脏	-4390
惊人	-4391
想要	-4392
战中	-4393
抓着	-4394
拐杖	-4395
提高	-4396
握着	-4397
支持	-4398
效率	-4399
无边	-4400
期待	-4401
机关	-4402
林中	-4403
死寂	-4404
泡泡	-4405
泡船	-4406
浮现	-4407
港口	-4408
火炬	-4409
灰烬	-4410
炮弹	-4411
狭窄	-4412
王然	-4413
田园	-4414
瘫痪	-4415
白雾	-4416
的吗	-4417
看过	-4418
着说	-4419
破碎	-4420
离子	-4421
等的	-4422
答案	-4423
胸前	-4424
落在	-4425
落的	-4426
葡萄	-4427
见面	-4428
讨厌	-4429
诗云	-4430
谨慎	-4431
转头	-4432
运河	-4433
远了	-4434
送给	-4435
遗憾	-4436
闪着	-4437
闭上	-4438
顶部	-4439
顾问	-4440
顿河	-4441
飞过	-4442
飞速	-4443
▁胎儿	-4444
与我们	-4445
了一句	-4446
今天的	-4447
以光速	-4448
会议的	-4449
公开版	-4450
发出了	-4451
向前走	-4452
吕文明	-4453
在我的	-4454
它们是	-4455
就这么	-4456
成功的	-4457
我们对	-4458
手榴弹	-4459
把一个	-4460
把我们	-4461
晶莹的	-4462
最近的	-4463
有几个	-4464
歼击机	-4465
生物学	-4466
的一位	-4467
看不清	-4468
短暂的	-4469
神经元	-4470
秋生爹	-4471
精致的	-4472
细长的	-4473
脚步声	-4474
被称为	-4475
让程心	-4476
足够的	-4477
这么做	-4478
那孩子	-4479
那里的	-4480
都是在	-4481
▁10:	-4482
▁章北海	-4483
一百五十	-4484
一直没有	-4485
了一口气	-4486
五年计划	-4487
人类世界	-4488
停了下来	-4489
十分钟后	-4490
对自己的	-4491
成为一个	-4492
未公开版	-4493
点点头说	-4494
狄奥伦娜	-4495
现在看来	-4496
生态循环	-4497
的情况下	-4498
空荡荡的	-4499
笑了一下	-4500
航天飞机	-4501
阶梯计划	-4502
一丝	-4503
一圈	-4504
一堆	-4505
一行	-4506
不定	-4507
不必	-4508
两条	-4509
两舰	-4510
严峻	-4511
,	-4512
的	-4513
。	-4514
一	-4515
▁	-4516
了	-4517
是	-4518
在	-4519
这	-4520
.	-4521
“	-4522
”	-4523
个	-4524
们	-4525
不	-4526
有	-4527
我	-4528
他	-4529
人	-4530
上	-4531
中	-4532
到	-4533
地	-4534
大	-4535
那	-4536
来	-4537
时	-4538
着	-4539
说	-4540
看	-4541
出	-4542
你	-4543
子	-4544
和	-4545
后	-4546
能	-4547
就	-4548
:	-4549
下	-4550
面	-4551
现	-4552
?	-4553
都	-4554
没	-4555
对	-4556
过	-4557
么	-4558
也	-4559
可	-4560
!	-4561
但	-4562
小	-4563
发	-4564
很	-4565
以	-4566
为	-4567
空	-4568
要	-4569
会	-4570
星	-4571
生	-4572
去	-4573
起	-4574
里	-4575
天	-4576
她	-4577
只	-4578
它	-4579
国	-4580
自	-4581
行	-4582
成	-4583
多	-4584
太	-4585
光	-4586
前	-4587
最	-4588
然	-4589
道	-4590
样	-4591
想	-4592
还	-4593
得	-4594
间	-4595
像	-4596
开	-4597
已	-4598
从	-4599
心	-4600
体	-4601
长	-4602
些	-4603
于	-4604
球	-4605
把	-4606
向	-4607
方	-4608
三	-4609
动	-4610
世	-4611
电	-4612
进	-4613
机	-4614
两	-4615
什	-4616
用	-4617
孩	-4618
种	-4619
明	-4620
十	-4621
同	-4622
好	-4623
"	-4624
分	-4625
所	-4626
头	-4627
点	-4628
年	-4629
力	-4630
界	-4631
飞	-4632
程	-4633
知	-4634
部	-4635
家	-4636
经	-4637
被	-4638
次	-4639
文	-4640
声	-4641
者	-4642
学	-4643
全	-4644
事	-4645
无	-4646
之	-4647
高	-4648
己	-4649
色	-4650
当	-4651
儿	-4652
几	-4653
作	-4654
问	-4655
话	-4656
而	-4657
使	-4658
走	-4659
其	-4660
如	-4661
外	-4662
正	-4663
手	-4664
回	-4665
实	-4666
*	-4667
将	-4668
又	-4669
意	-4670
海	-4671
阳	-4672
定	-4673
眼	-4674
与	-4675
水	-4676
系	-4677
战	-4678
身	-4679
真	-4680
变	-4681
感	-4682
目	-4683
白	-4684
类	-4685
理	-4686
远	-4687
度	-4688
号	-4689
西	-4690
接	-4691
公	-4692
维	-4693
1	-4694
工	-4695
速	-4696
量	-4697
比	-4698
军	-4699
0	-4700
第	-4701
二	-4702
相	-4703
信	-4704
直	-4705
华	-4706
物	-4707
快	-4708
黑	-4709
果	-4710
再	-4711
吗	-4712
处	-4713
让	-4714
队	-4715
宇	-4716
、	-4717
完	-4718
入	-4719
重	-4720
气	-4721
位	-4722
代	-4723
形	-4724
数	-4725
您	-4726
才	-4727
云	-4728
觉	-4729
打	-4730
舰	-4731
片	-4732
由	-4733
做	-4734
火	-4735
平	-4736
罗	-4737
东	-4738
本	-4739
指	-4740
车	-4741
法	-4742
统	-4743
船	-4744
并	-4745
主	-4746
吧	-4747
新	-4748
加	-4749
内	-4750
计	-4751
宙	-4752
万	-4753
更	-4754
器	-4755
刚	-4756
射	-4757
失	-4758
边	-4759
线	-4760
通	-4761
因	-4762
放	-4763
林	-4764
离	-4765
口	-4766
象	-4767
听	-4768
始	-4769
情	-4770
关	-4771
斯	-4772
少	-4773
别	-4774
总	-4775
基	-4776
表	-4777
应	-4778
状	-4779
美	-4780
四	-4781
场	-4782
巨	-4783
每	-4784
死	-4785
给	-4786
五	-4787
显	-4788
转	-4789
纪	-4790
原	-4791
击	-4792
百	-4793
A	-4794
命	-4795
活	-4796
城	-4797
名	-4798
息	-4799
深	-4800
轻	-4801
件	-4802
存	-4803
条	-4804
见	-4805
化	-4806
带	-4807
辑	-4808
运	-4809
元	-4810
呢	-4811
员	-4812
立	-4813
—	-4814
近	-4815
难	-4816
解	-4817
任	-4818
闪	-4819
制	-4820
超	-4821
史	-4822
切	-4823
思	-4824
至	-4825
结	-4826
合	-4827
音	-4828
望	-4829
建	-4830
克	-4831
2	-4832
日	-4833
士	-4834
门	-4835
住	-4836
半	-4837
笑	-4838
航	-4839
许	-4840
米	-4841
首	-4842
干	-4843
老	-4844
算	-4845
等	-4846
山	-4847
市	-4848
先	-4849
清	-4850
神	-4851
标	-4852
乎	-4853
消	-4854
围	-4855
达	-4856
千	-4857
整	-4858
科	-4859
站	-4860
张	-4861
术	-4862
微	-4863
强	-4864
弹	-4865
反	-4866
常	-4867
层	-4868
民	-4869
;	-4870
群	-4871
视	-4872
极	-4873
3	-4874
政	-4875
仍	-4876
怎	-4877
记	-4878
镜	-4879
北	-4880
观	-4881
夜	-4882
确	-4883
落	-4884
认	-4885
示	-4886
引	-4887
测	-4888
静	-4889
梦	-4890
惊	-4891
该	-4892
态	-4893
流	-4894
月	-4895
亮	-4896
各	-4897
暗	-4898
越	-4899
利	-4900
红	-4901
脑	-4902
组	-4903
字	-4904
导	-4905
女	-4906
特	-4907
产	-4908
根	-4909
安	-4910
影	-4911
低	-4912
拉	-4913
复	-4914
块	-4915
官	-4916
穿	-4917
画	-4918
刻	-4919
质	-4920
啊	-4921
似	-4922
摇	-4923
蓝	-4924
细	-4925
题	-4926
另	-4927
提	-4928
图	-4929
距	-4930
步	-4931
冰	-4932
叫	-4933
沉	-4934
何	-4935
亚	-4936
停	-4937
雷	-4938
奇	-4939
照	-4940
联	-4941
研	-4942
路	-4943
冷	-4944
(	-4945
)	-4946
台	-4947
令	-4948
找	-4949
此	-4950
风	-4951
突	-4952
壁	-4953
波	-4954
装	-4955
断	-4956
周	-4957
究	-4958
级	-4959
升	-4960
需	-4961
历	-4962
造	-4963
吃	-4964
师	-4965
性	-4966
随	-4967
拿	-4968
满	-4969
渐	-4970
传	-4971
告	-4972
终	-4973
座	-4974
领	-4975
技	-4976
颗	-4977
模	-4978
型	-4979
试	-4980
环	-4981
》	-4982
划	-4983
《	-4984
管	-4985
精	-4986
王	-4987
集	-4988
钟	-4989
核	-4990
戴	-4991
受	-4992
论	-4993
5	-4994
区	-4995
续	-4996
够	-4997
注	-4998
I	-4999
移	-5000
汪	-5001
默	-5002
校	-5003
双	-5004
坐	-5005
密	-5006
游	-5007
连	-5008
爆	-5009
设	-5010
响	-5011
紧	-5012
单	-5013
止	-5014
智	-5015
般	-5016
妈	-5017
仪	-5018
沙	-5019
雪	-5020
服	-5021
叶	-5022
恐	-5023
请	-5024
置	-5025
金	-5026
透	-5027
保	-5028
早	-5029
洁	-5030
肯	-5031
议	-5032
识	-5033
淼	-5034
却	-5035
持	-5036
容	-5037
布	-5038
式	-5039
土	-5040
枪	-5041
警	-5042
室	-5043
阵	-5044
交	-5045
收	-5046
亲	-5047
卫	-5048
炸	-5049
构	-5050
爸	-5051
未	-5052
参	-5053
破	-5054
约	-5055
业	-5056
或	-5057
执	-5058
段	-5059
灭	-5060
幕	-5061
欣	-5062
验	-5063
留	-5064
尔	-5065
4	-5066
备	-5067
恒	-5068
倒	-5069
社	-5070
争	-5071
9	-5072
尽	-5073
丁	-5074
刘	-5075
毁	-5076
仿	-5077
报	-5078
屏	-5079
帝	-5080
期	-5081
武	-5082
义	-5083
答	-5084
佛	-5085
冲	-5086
圆	-5087
陆	-5088
推	-5089
除	-5090
绝	-5091
决	-5092
广	-5093
玩	-5094
际	-5095
按	-5096
河	-5097
选	-5098
灯	-5099
察	-5100
候	-5101
兵	-5102
冬	-5103
控	-5104
窗	-5105
石	-5106
即	-5107
料	-5108
准	-5109
亿	-5110
洋	-5111
包	-5112
顶	-5113
则	-5114
哪	-5115
六	-5116
团	-5117
规	-5118
6	-5119
险	-5120
花	-5121
简	-5122
继	-5123
7	-5124
慢	-5125
格	-5126
博	-5127
散	-5128
排	-5129
教	-5130
谈	-5131
热	-5132
睛	-5133
烧	-5134
支	-5135
背	-5136
具	-5137
必	-5138
探	-5139
率	-5140
缓	-5141
端	-5142
防	-5143
办	-5144
醒	-5145
8	-5146
谁	-5147
希	-5148
木	-5149
降	-5150
挥	-5151
德	-5152
据	-5153
底	-5154
景	-5155
严	-5156
短	-5157
伊	-5158
架	-5159
诉	-5160
滑	-5161
雨	-5162
共	-5163
书	-5164
兴	-5165
展	-5166
急	-5167
言	-5168
威	-5169
银	-5170
角	-5171
帆	-5172
聚	-5173
语	-5174
古	-5175
脸	-5176
轨	-5177
甚	-5178
证	-5179
秒	-5180
纸	-5181
旁	-5182
浮	-5183
烟	-5184
母	-5185
艘	-5186
房	-5187
森	-5188
纳	-5189
泡	-5190
今	-5191
戏	-5192
男	-5193
激	-5194
八	-5195
厅	-5196
呼	-5197
马	-5198
楼	-5199
虽	-5200
调	-5201
送	-5202
乐	-5203
食	-5204
舱	-5205
怪	-5206
网	-5207
娃	-5208
句	-5209
压	-5210
迹	-5211
睡	-5212
功	-5213
南	-5214
取	-5215
奥	-5216
况	-5217
永	-5218
血	-5219
爱	-5220
欢	-5221
责	-5222
隐	-5223
板	-5224
求	-5225
考	-5226
项	-5227
初	-5228
预	-5229
列	-5230
岁	-5231
怕	-5232
资	-5233
软	-5234
坦	-5235
温	-5236
慈	-5237
父	-5238
露	-5239
宏	-5240
洞	-5241
待	-5242
杂	-5243
节	-5244
危	-5245
投	-5246
草	-5247
专	-5248
束	-5249
乱	-5250
讲	-5251
恩	-5252
往	-5253
曾	-5254
充	-5255
普	-5256
卡	-5257
异	-5258
属	-5259
限	-5260
依	-5261
仅	-5262
浪	-5263
错	-5264
丽	-5265
晚	-5266
寒	-5267
权	-5268
致	-5269
足	-5270
龙	-5271
丝	-5272
幻	-5273
庄	-5274
圈	-5275
‘	-5276
医	-5277
曲	-5278
洲	-5279
攻	-5280
秘	-5281
源	-5282
滴	-5283
灵	-5284
辆	-5285
飘	-5286
掉	-5287
眠	-5288
堆	-5289
晨	-5290
菲	-5291
旋	-5292
哈	-5293
竟	-5294
章	-5295
衣	-5296
喊	-5297
墙	-5298
岸	-5299
敌	-5300
沃	-5301
喜	-5302
易	-5303
谢	-5304
及	-5305
抬	-5306
筑	-5307
迷	-5308
靠	-5309
举	-5310
梯	-5311
且	-5312
律	-5313
杀	-5314
树	-5315
减	-5316
伸	-5317
桌	-5318
震	-5319
’	-5320
呆	-5321
味	-5322
积	-5323
跑	-5324
黄	-5325
念	-5326
护	-5327
须	-5328
吸	-5329
悬	-5330
故	-5331
启	-5332
磁	-5333
铁	-5334
尘	-5335
粒	-5336
跟	-5337
剩	-5338
换	-5339
烈	-5340
差	-5341
沿	-5342
燃	-5343
脚	-5344
彩	-5345
创	-5346
汽	-5347
狂	-5348
F	-5349
宽	-5350
封	-5351
左	-5352
监	-5353
触	-5354
轮	-5355
G	-5356
播	-5357
碎	-5358
适	-5359
酒	-5360
便	-5361
择	-5362
改	-5363
皮	-5364
延	-5365
颜	-5366
病	-5367
某	-5368
漫	-5369
写	-5370
负	-5371
院	-5372
幅	-5373
境	-5374
拥	-5375
跳	-5376
否	-5377
增	-5378
府	-5379
径	-5380
顿	-5381
略	-5382
袋	-5383
亡	-5384
友	-5385
案	-5386
脱	-5387
斗	-5388
非	-5389
品	-5390
盖	-5391
称	-5392
塔	-5393
席	-5394
伟	-5395
务	-5396
灰	-5397
缩	-5398
固	-5399
淡	-5400
登	-5401
井	-5402
遥	-5403
久	-5404
域	-5405
绿	-5406
蚁	-5407
局	-5408
值	-5409
牙	-5410
驶	-5411
吞	-5412
朝	-5413
艇	-5414
闭	-5415
钢	-5416
雾	-5417
右	-5418
夫	-5419
峰	-5420
坚	-5421
拍	-5422
熟	-5423
愿	-5424
较	-5425
京	-5426
拟	-5427
释	-5428
弱	-5429
液	-5430
虚	-5431
逃	-5432
幸	-5433
阶	-5434
志	-5435
阔	-5436
操	-5437
晶	-5438
毫	-5439
叹	-5440
委	-5441
扰	-5442
印	-5443
翻	-5444
势	-5445
独	-5446
占	-5447
楚	-5448
C	-5449
治	-5450
纷	-5451
判	-5452
岩	-5453
救	-5454
伤	-5455
盘	-5456
英	-5457
份	-5458
杨	-5459
频	-5460
效	-5461
录	-5462
剧	-5463
钱	-5464
临	-5465
朋	-5466
索	-5467
艺	-5468
撞	-5469
摆	-5470
B	-5471
居	-5472
括	-5473
忆	-5474
握	-5475
柱	-5476
油	-5477
荡	-5478
薄	-5479
抱	-5480
惧	-5481
派	-5482
彬	-5483
抽	-5484
虑	-5485
遇	-5486
阴	-5487
暴	-5488
七	-5489
抓	-5490
午	-5491
尾	-5492
含	-5493
帅	-5494
甲	-5495
读	-5496
郑	-5497
N	-5498
陷	-5499
·	-5500
客	-5501
扩	-5502
班	-5503
蚂	-5504
阿	-5505
零	-5506
厚	-5507
材	-5508
稳	-5509
莫	-5510
批	-5511
礼	-5512
粗	-5513
唯	-5514
坏	-5515
灾	-5516
炮	-5517
司	-5518
恶	-5519
松	-5520
缘	-5521
互	-5522
努	-5523
喝	-5524
套	-5525
趣	-5526
扔	-5527
芒	-5528
瓶	-5529
误	-5530
辐	-5531
恢	-5532
织	-5533
苦	-5534
递	-5535
兹	-5536
尉	-5537
岛	-5538
映	-5539
盯	-5540
诚	-5541
鱼	-5542
忘	-5543
野	-5544
倍	-5545
遍	-5546
避	-5547
呈	-5548
墓	-5549
查	-5550
瞬	-5551
追	-5552
采	-5553
附	-5554
麻	-5555
D	-5556
剑	-5557
园	-5558
退	-5559
毕	-5560
肉	-5561
怀	-5562
谋	-5563
费	-5564
萨	-5565
九	-5566
厦	-5567
概	-5568
毛	-5569
苏	-5570
卷	-5571
宁	-5572
承	-5573
漂	-5574
众	-5575
助	-5576
哦	-5577
埃	-5578
孤	-5579
慑	-5580
演	-5581
瓦	-5582
础	-5583
耳	-5584
键	-5585
闻	-5586
R	-5587
害	-5588
序	-5589
辛	-5590
-	-5591
困	-5592
疑	-5593
范	-5594
托	-5595
煤	-5596
幽	-5597
掩	-5598
裂	-5599
诗	-5600
供	-5601
宫	-5602
床	-5603
混	-5604
育	-5605
膛	-5606
嘴	-5607
富	-5608
帮	-5609
笔	-5610
魔	-5611
征	-5612
欧	-5613
滚	-5614
荒	-5615
载	-5616
遗	-5617
隔	-5618
轰	-5619
习	-5620
吹	-5621
喷	-5622
编	-5623
虫	-5624
哭	-5625
库	-5626
%	-5627
饭	-5628
敬	-5629
余	-5630
寂	-5631
检	-5632
漠	-5633
述	-5634
敢	-5635
李	-5636
迪	-5637
钻	-5638
青	-5639
摄	-5640
输	-5641
P	-5642
介	-5643
掌	-5644
残	-5645
罩	-5646
施	-5647
箱	-5648
药	-5649
寻	-5650
败	-5651
娜	-5652
乘	-5653
假	-5654
泰	-5655
例	-5656
庭	-5657
描	-5658
桑	-5659
皇	-5660
修	-5661
奋	-5662
弦	-5663
讯	-5664
担	-5665
村	-5666
绕	-5667
壮	-5668
诺	-5669
仰	-5670
副	-5671
歌	-5672
涌	-5673
冒	-5674
归	-5675
哥	-5676
晓	-5677
痛	-5678
翼	-5679
顾	-5680
凝	-5681
弃	-5682
柔	-5683
碑	-5684
侧	-5685
嘛	-5686
均	-5687
疯	-5688
伏	-5689
悉	-5690
旧	-5691
糊	-5692
肩	-5693
藏	-5694
驱	-5695
鬼	-5696
鸣	-5697
'	-5698
仔	-5699
焰	-5700
爬	-5701
素	-5702
晰	-5703
街	-5704
讨	-5705
懂	-5706
汉	-5707
矿	-5708
硬	-5709
守	-5710
沈	-5711
琳	-5712
顺	-5713
e	-5714
搞	-5715
伞	-5716
审	-5717
绍	-5718
绪	-5719
膜	-5720
课	-5721
骨	-5722
暂	-5723
杯	-5724
臂	-5725
茫	-5726
返	-5727
针	-5728
凉	-5729
惑	-5730
牛	-5731
蒸	-5732
宣	-5733
获	-5734
颤	-5735
M	-5736
抗	-5737
摧	-5738
旗	-5739
玻	-5740
码	-5741
秋	-5742
融	-5743
覆	-5744
价	-5745
娘	-5746
猛	-5747
配	-5748
坠	-5749
巴	-5750
御	-5751
折	-5752
昨	-5753
艾	-5754
刀	-5755
妮	-5756
摩	-5757
泪	-5758
璃	-5759
勒	-5760
拖	-5761
童	-5762
罪	-5763
迅	-5764
迎	-5765
冻	-5766
扫	-5767
末	-5768
艰	-5769
挂	-5770
省	-5771
齐	-5772
昏	-5773
暖	-5774
烂	-5775
赛	-5776
呵	-5777
累	-5778
缺	-5779
T	-5780
旅	-5781
版	-5782
赶	-5783
S	-5784
优	-5785
珠	-5786
田	-5787
躺	-5788
尼	-5789
玉	-5790
呀	-5791
尖	-5792
授	-5793
纯	-5794
股	-5795
抖	-5796
曼	-5797
猜	-5798
谷	-5799
邦	-5800
伦	-5801
俄	-5802
免	-5803
耗	-5804
养	-5805
农	-5806
摸	-5807
词	-5808
阻	-5809
鲸	-5810
胡	-5811
借	-5812
冯	-5813
忙	-5814
潜	-5815
犯	-5816
E	-5817
稀	-5818
蒙	-5819
陈	-5820
挤	-5821
稍	-5822
脏	-5823
莱	-5824
圣	-5825
彻	-5826
族	-5827
枚	-5828
鲜	-5829
休	-5830
堂	-5831
琴	-5832
箭	-5833
舞	-5834
	-5835
职	-5836
撒	-5837
皂	-5838
穷	-5839
笼	-5840
筒	-5841
练	-5842
若	-5843
废	-5844
弯	-5845
敏	-5846
杆	-5847
胜	-5848
香	-5849
串	-5850
劲	-5851
厂	-5852
尊	-5853
怒	-5854
扎	-5855
池	-5856
湖	-5857
福	-5858
兰	-5859
障	-5860
刺	-5861
吕	-5862
呜	-5863
宋	-5864
焦	-5865
乔	-5866
姨	-5867
屋	-5868
烁	-5869
络	-5870
买	-5871
倾	-5872
吐	-5873
吨	-5874
替	-5875
江	-5876
浓	-5877
烦	-5878
耀	-5879
舷	-5880
贴	-5881
踪	-5882
驾	-5883
咒	-5884
央	-5885
妙	-5886
析	-5887
熄	-5888
塞	-5889
符	-5890
奶	-5891
宝	-5892
弄	-5893
损	-5894
灿	-5895
舒	-5896
莹	-5897
孔	-5898
掠	-5899
擦	-5900
祖	-5901
财	-5902
铜	-5903
壳	-5904
爷	-5905
腿	-5906
蛛	-5907
贵	-5908
跃	-5909
赫	-5910
途	-5911
饿	-5912
咱	-5913
夏	-5914
姑	-5915
截	-5916
扭	-5917
椅	-5918
译	-5919
胸	-5920
贮	-5921
逝	-5922
锋	-5923
哲	-5924
慰	-5925
镇	-5926
a	-5927
夹	-5928
拾	-5929
晃	-5930
枝	-5931
毒	-5932
济	-5933
澳	-5934
磨	-5935
禁	-5936
纹	-5937
脉	-5938
典	-5939
招	-5940
插	-5941
朵	-5942
l	-5943
傻	-5944
崩	-5945
庞	-5946
梭	-5947
湿	-5948
付	-5949
扑	-5950
潮	-5951
辈	-5952
戒	-5953
既	-5954
悲	-5955
捕	-5956
春	-5957
浸	-5958
脆	-5959
醉	-5960
商	-5961
晕	-5962
炉	-5963
曹	-5964
盔	-5965
贝	-5966
酷	-5967
馆	-5968
骑	-5969
奏	-5970
弧	-5971
丢	-5972
旦	-5973
繁	-5974
胁	-5975
隆	-5976
O	-5977
忧	-5978
缝	-5979
凭	-5980
姆	-5981
援	-5982
疏	-5983
逐	-5984
偏	-5985
冥	-5986
吓	-5987
旷	-5988
盒	-5989
票	-5990
纤	-5991
革	-5992
鼠	-5993
X	-5994
拆	-5995
振	-5996
染	-5997
汇	-5998
粮	-5999
胶	-6000
隧	-6001
鸟	-6002
惯	-6003
蛋	-6004
补	-6005
喂	-6006
挡	-6007
植	-6008
痕	-6009
L	-6010
坑	-6011
垂	-6012
妻	-6013
季	-6014
洪	-6015
胀	-6016
腾	-6017
赞	-6018
赵	-6019
叠	-6020
嗯	-6021
忍	-6022
氢	-6023
浑	-6024
渊	-6025
诞	-6026
迫	-6027
净	-6028
唱	-6029
惨	-6030
肥	-6031
著	-6032
龄	-6033
丛	-6034
伙	-6035
桥	-6036
横	-6037
糖	-6038
训	-6039
跨	-6040
麦	-6041
垃	-6042
幢	-6043
廊	-6044
抛	-6045
斑	-6046
泥	-6047
篷	-6048
膨	-6049
锁	-6050
劳	-6051
尺	-6052
搬	-6053
溃	-6054
盛	-6055
绳	-6056
o	-6057
侵	-6058
哇	-6059
圾	-6060
役	-6061
怖	-6062
滩	-6063
跌	-6064
躯	-6065
辉	-6066
扶	-6067
浆	-6068
渡	-6069
犹	-6070
狗	-6071
紫	-6072
雕	-6073
墨	-6074
扬	-6075
挺	-6076
蔽	-6077
蛇	-6078
袭	-6079
踏	-6080
餐	-6081
凌	-6082
坍	-6083
康	-6084
挖	-6085
挣	-6086
撤	-6087
申	-6088
召	-6089
唉	-6090
善	-6091
埋	-6092
堵	-6093
届	-6094
慧	-6095
熔	-6096
纵	-6097
良	-6098
钮	-6099
俩	-6100
氧	-6101
港	-6102
睁	-6103
凯	-6104
协	-6105
欲	-6106
洗	-6107
疲	-6108
苍	-6109
烛	-6110
瑰	-6111
耐	-6112
腰	-6113
苗	-6114
诅	-6115
躲	-6116
雄	-6117
魂	-6118
丰	-6119
卖	-6120
厉	-6121
夕	-6122
店	-6123
抵	-6124
鼓	-6125
循	-6126
撑	-6127
玫	-6128
症	-6129
纽	-6130
胞	-6131
贫	-6132
逼	-6133
t	-6134
估	-6135
佳	-6136
坡	-6137
牌	-6138
瞪	-6139
粉	-6140
缕	-6141
豪	-6142
伯	-6143
塑	-6144
尸	-6145
惠	-6146
茶	-6147
详	-6148
骗	-6149
巡	-6150
掏	-6151
泊	-6152
涉	-6153
芯	-6154
衡	-6155
裹	-6156
靶	-6157
齿	-6158
喻	-6159
拒	-6160
拯	-6161
框	-6162
涂	-6163
膀	-6164
豫	-6165
【	-6166
厌	-6167
叛	-6168
嗡	-6169
坎	-6170
塌	-6171
夺	-6172
巧	-6173
恨	-6174
斜	-6175
桶	-6176
淹	-6177
狱	-6178
】	-6179
享	-6180
啸	-6181
耶	-6182
胎	-6183
赏	-6184
r	-6185
唤	-6186
喃	-6187
奔	-6188
杜	-6189
玛	-6190
秦	-6191
衰	-6192
阅	-6193
悄	-6194
措	-6195
汗	-6196
爹	-6197
珍	-6198
臣	-6199
陶	-6200
c	-6201
晴	-6202
殿	-6203
漏	-6204
碰	-6205
访	-6206
蹲	-6207
迁	-6208
迟	-6209
霍	-6210
健	-6211
唐	-6212
懒	-6213
毯	-6214
漆	-6215
荣	-6216
链	-6217
销	-6218
>	-6219
亨	-6220
哀	-6221
坛	-6222
拐	-6223
洛	-6224
私	-6225
窄	-6226
勤	-6227
涡	-6228
策	-6229
闷	-6230
<	-6231
乡	-6232
哼	-6233
瘦	-6234
稿	-6235
貌	-6236
偷	-6237
匀	-6238
坪	-6239
宗	-6240
幼	-6241
户	-6242
拔	-6243
撕	-6244
盟	-6245
碍	-6246
遭	-6247
鉴	-6248
匆	-6249
婴	-6250
宴	-6251
弟	-6252
潘	-6253
企	-6254
催	-6255
允	-6256
抢	-6257
拜	-6258
枯	-6259
棵	-6260
菜	-6261
询	-6262
违	-6263
鼻	-6264
/	-6265
促	-6266
媒	-6267
宿	-6268
忽	-6269
惟	-6270
拦	-6271
挑	-6272
瓜	-6273
笨	-6274
肤	-6275
躬	-6276
噩	-6277
帐	-6278
污	-6279
砸	-6280
竹	-6281
聪	-6282
舍	-6283
遮	-6284
邻	-6285
K	-6286
吉	-6287
弗	-6288
慎	-6289
扯	-6290
渴	-6291
营	-6292
赤	-6293
铺	-6294
鞋	-6295
n	-6296
凑	-6297
哨	-6298
啦	-6299
啪	-6300
培	-6301
姐	-6302
姿	-6303
惜	-6304
拨	-6305
杉	-6306
械	-6307
献	-6308
甸	-6309
盆	-6310
竖	-6311
螺	-6312
诡	-6313
雅	-6314
鞠	-6315
饮	-6316
黎	-6317
s	-6318
僵	-6319
勾	-6320
址	-6321
妹	-6322
帕	-6323
帽	-6324
恼	-6325
慌	-6326
搜	-6327
朗	-6328
柜	-6329
浩	-6330
疗	-6331
益	-6332
页	-6333
乏	-6334
凶	-6335
剪	-6336
恋	-6337
捂	-6338
摘	-6339
瞄	-6340
竞	-6341
综	-6342
罐	-6343
羽	-6344
耸	-6345
裁	-6346
辩	-6347
闹	-6348
偶	-6349
勇	-6350
吊	-6351
婚	-6352
岗	-6353
患	-6354
愤	-6355
抹	-6356
挨	-6357
朦	-6358
狼	-6359
篇	-6360
粘	-6361
羊	-6362
肃	-6363
胧	-6364
蜡	-6365
谓	-6366
郁	-6367
陌	-6368
h	-6369
嘶	-6370
怜	-6371
扣	-6372
抚	-6373
歼	-6374
浅	-6375
狭	-6376
盈	-6377
碳	-6378
绵	-6379
货	-6380
闲	-6381
额	-6382
墅	-6383
崖	-6384
披	-6385
敲	-6386
杰	-6387
聊	-6388
肚	-6389
伽	-6390
侯	-6391
悠	-6392
敞	-6393
滞	-6394
熊	-6395
痴	-6396
祝	-6397
茄	-6398
莎	-6399
贯	-6400
兆	-6401
刑	-6402
咬	-6403
扇	-6404
畏	-6405
瘫	-6406
穹	-6407
舟	-6408
荷	-6409
U	-6410
i	-6411
y	-6412
∶	-6413
冈	-6414
剂	-6415
堪	-6416
弥	-6417
惫	-6418
抑	-6419
柄	-6420
棋	-6421
氦	-6422
沫	-6423
溶	-6424
炎	-6425
狄	-6426
篮	-6427
轴	-6428
辨	-6429
锅	-6430
骚	-6431
黯	-6432
W	-6433
予	-6434
伴	-6435
匹	-6436
寄	-6437
履	-6438
崇	-6439
徒	-6440
炭	-6441
盏	-6442
秀	-6443
袖	-6444
谨	-6445
陪	-6446
君	-6447
喘	-6448
州	-6449
榴	-6450
泛	-6451
润	-6452
碧	-6453
莲	-6454
衷	-6455
迈	-6456
饰	-6457
鸡	-6458
伪	-6459
厘	-6460
悟	-6461
渗	-6462
瑞	-6463
盐	-6464
眩	-6465
祭	-6466
稚	-6467
糟	-6468
胆	-6469
蜂	-6470
评	-6471
邪	-6472
陨	-6473
凡	-6474
堡	-6475
朱	-6476
沐	-6477
渔	-6478
爪	-6479
签	-6480
铃	-6481
隙	-6482
割	-6483
摔	-6484
擎	-6485
柳	-6486
沟	-6487
罕	-6488
逻	-6489
铅	-6490
饕	-6491
饱	-6492
骂	-6493
乌	-6494
吟	-6495
哗	-6496
孙	-6497
屁	-6498
峻	-6499
忠	-6500
斐	-6501
炬	-6502
盲	-6503
翅	-6504
艳	-6505
蜘	-6506
谱	-6507
锐	-6508
餮	-6509
骤	-6510
党	-6511
兽	-6512
劝	-6513
劣	-6514
吱	-6515
吴	-6516
宪	-6517
撼	-6518
瑟	-6519
竭	-6520
纬	-6521
绘	-6522
缠	-6523
锤	-6524
霞	-6525
霸	-6526
刹	-6527
剌	-6528
戈	-6529
泉	-6530
浴	-6531
疼	-6532
荧	-6533
萍	-6534
葬	-6535
辞	-6536
锯	-6537
H	-6538
丧	-6539
庆	-6540
捧	-6541
猎	-6542
猫	-6543
督	-6544
窒	-6545
褐	-6546
诱	-6547
鲁	-6548
仗	-6549
佩	-6550
奖	-6551
恍	-6552
拼	-6553
桨	-6554
澈	-6555
烬	-6556
煌	-6557
牲	-6558
疆	-6559
皱	-6560
罚	-6561
脖	-6562
逸	-6563
镶	-6564
韦	-6565
凄	-6566
叔	-6567
嘿	-6568
岳	-6569
捷	-6570
摊	-6571
津	-6572
牺	-6573
甜	-6574
菌	-6575
誓	-6576
陛	-6577
侦	-6578
僻	-6579
旱	-6580
栏	-6581
殊	-6582
疾	-6583
肢	-6584
蔓	-6585
谜	-6586
邓	-6587
颅	-6588
丈	-6589
乳	-6590
尝	-6591
廓	-6592
忌	-6593
恰	-6594
憾	-6595
朴	-6596
杖	-6597
款	-6598
祈	-6599
窝	-6600
绒	-6601
裸	-6602
逊	-6603
郊	-6604
钉	-6605
m	-6606
咚	-6607
噪	-6608
夸	-6609
姚	-6610
帷	-6611
彼	-6612
扁	-6613
搭	-6614
斤	-6615
槽	-6616
泄	-6617
灼	-6618
燥	-6619
甩	-6620
碗	-6621
署	-6622
耻	-6623
仓	-6624
册	-6625
刃	-6626
刮	-6627
勃	-6628
卓	-6629
喧	-6630
宜	-6631
峡	-6632
愚	-6633
扳	-6634
携	-6635
柯	-6636
棒	-6637
淋	-6638
渺	-6639
痪	-6640
矩	-6641
窃	-6642
胖	-6643
萄	-6644
葡	-6645
蝗	-6646
蹈	-6647
辰	-6648
陋	-6649
仇	-6650
伐	-6651
吵	-6652
哑	-6653
嘻	-6654
嫩	-6655
慨	-6656
掀	-6657
暮	-6658
眨	-6659
砍	-6660
租	-6661
籍	-6662
翘	-6663
腐	-6664
骸	-6665
d	-6666
g	-6667
倦	-6668
刷	-6669
尚	-6670
惩	-6671
攀	-6672
沸	-6673
洒	-6674
溪	-6675
烫	-6676
牧	-6677
牵	-6678
玄	-6679
矮	-6680
腊	-6681
虹	-6682
螳	-6683
蠢	-6684
衬	-6685
剥	-6686
坟	-6687
填	-6688
寿	-6689
悔	-6690
档	-6691
椭	-6692
欺	-6693
氛	-6694
滤	-6695
眉	-6696
眸	-6697
睹	-6698
祷	-6699
糕	-6700
羞	-6701
螂	-6702
趟	-6703
遵	-6704
魏	-6705
剖	-6706
廷	-6707
悦	-6708
挪	-6709
捉	-6710
掘	-6711
揭	-6712
硅	-6713
碌	-6714
穴	-6715
舌	-6716
踱	-6717
霖	-6718
驻	-6719
垩	-6720
嫌	-6721
寸	-6722
帜	-6723
怨	-6724
拙	-6725
昂	-6726
昔	-6727
柴	-6728
沌	-6729
灌	-6730
瞎	-6731
赖	-6732
躁	-6733
p	-6734
w	-6735
叉	-6736
呸	-6737
咕	-6738
噼	-6739
坝	-6740
姓	-6741
娇	-6742
拂	-6743
猪	-6744
纱	-6745
腹	-6746
衫	-6747
遣	-6748
酸	-6749
顽	-6750
颠	-6751
饥	-6752
丘	-6753
俗	-6754
傲	-6755
卢	-6756
卧	-6757
卸	-6758
呕	-6759
婆	-6760
巾	-6761
昼	-6762
氮	-6763
洼	-6764
狠	-6765
笛	-6766
绚	-6767
缸	-6768
罢	-6769
耽	-6770
蔑	-6771
邮	-6772
陵	-6773
J	-6774
Z	-6775
×	-6776
厨	-6777
咽	-6778
嗨	-6779
嘟	-6780
屈	-6781
帘	-6782
愉	-6783
愣	-6784
晋	-6785
曙	-6786
桩	-6787
泣	-6788
溅	-6789
滔	-6790
焚	-6791
番	-6792
翔	-6793
蛮	-6794
蝶	-6795
裤	-6796
谅	-6797
赢	-6798
Y	-6799
凸	-6800
嚼	-6801
奧	-6802
拳	-6803
枕	-6804
棕	-6805
淌	-6806
炽	-6807
牢	-6808
砖	-6809
纣	-6810
绞	-6811
肺	-6812
胳	-6813
腕	-6814
臭	-6815
褚	-6816
魄	-6817
b	-6818
亏	-6819
仁	-6820
伍	-6821
储	-6822
卿	-6823
吻	-6824
呗	-6825
墟	-6826
奢	-6827
宅	-6828
币	-6829
徽	-6830
汹	-6831
沧	-6832
涵	-6833
渠	-6834
瀑	-6835
畅	-6836
痒	-6837
瞳	-6838
矛	-6839
袍	-6840
览	-6841
豆	-6842
逆	-6843
郭	-6844
u	-6845
v	-6846
兄	-6847
卑	-6848
哄	-6849
唇	-6850
奄	-6851
奉	-6852
宾	-6853
捞	-6854
梁	-6855
橡	-6856
泼	-6857
漉	-6858
烤	-6859
爽	-6860
秩	-6861
纠	-6862
缆	-6863
膊	-6864
膝	-6865
蚀	-6866
蚊	-6867
讽	-6868
谐	-6869
趋	-6870
遂	-6871
锈	-6872
饲	-6873
魅	-6874
°	-6875
偿	-6876
劫	-6877
卵	-6878
嘲	-6879
壕	-6880
孕	-6881
屑	-6882
斥	-6883
斧	-6884
曳	-6885
桔	-6886
椐	-6887
沮	-6888
淘	-6889
溜	-6890
犬	-6891
琼	-6892
癌	-6893
盼	-6894
硕	-6895
祥	-6896
脊	-6897
菇	-6898
誉	-6899
赡	-6900
迸	-6901
丑	-6902
仙	-6903
俱	-6904
傍	-6905
削	-6906
叮	-6907
啡	-6908
啥	-6909
妒	-6910
寓	-6911
岭	-6912
幔	-6913
拓	-6914
涯	-6915
溢	-6916
粼	-6917
纲	-6918
蒂	-6919
虎	-6920
蛀	-6921
蝴	-6922
蠕	-6923
鑫	-6924
镀	-6925
阱	-6926
驳	-6927
鹅	-6928
鹰	-6929
V	-6930
俯	-6931
叙	-6932
咔	-6933
咖	-6934
咨	-6935
啤	-6936
嗓	-6937
壤	-6938
妇	-6939
川	-6940
弓	-6941
挽	-6942
搏	-6943
昆	-6944
歇	-6945
歉	-6946
湾	-6947
眶	-6948
糙	-6949
绩	-6950
肌	-6951
芽	-6952
蘑	-6953
衔	-6954
诸	-6955
谎	-6956
谣	-6957
豁	-6958
迄	-6959
钝	-6960
锹	-6961
鼎	-6962
删	-6963
剔	-6964
吼	-6965
咳	-6966
嘀	-6967
囊	-6968
怯	-6969
拄	-6970
捆	-6971
敦	-6972
栩	-6973
桃	-6974
泳	-6975
涛	-6976
炼	-6977
耍	-6978
耕	-6979
聋	-6980
胃	-6981
谦	-6982
赌	-6983
踢	-6984
轿	-6985
邀	-6986
邃	-6987
鄙	-6988
铭	-6989
锢	-6990
饼	-6991
骄	-6992
黛	-6993
冠	-6994
勉	-6995
勋	-6996
匙	-6997
咧	-6998
嫉	-6999
徐	-7000
惚	-7001
押	-7002
拢	-7003
摞	-7004
栅	-7005
栓	-7006
榄	-7007
欠	-7008
沾	-7009
淇	-7010
潭	-7011
灶	-7012
疫	-7013
盾	-7014
磅	-7015
磷	-7016
筋	-7017
缀	-7018
肠	-7019
芬	-7020
蓉	-7021
讥	-7022
赠	-7023
锚	-7024
驰	-7025
f	-7026
亭	-7027
仑	-7028
侈	-7029
兢	-7030
兮	-7031
凹	-7032
吁	-7033
咄	-7034
咐	-7035
嗅	-7036
尤	-7037
尬	-7038
尴	-7039
恭	-7040
拎	-7041
揪	-7042
攥	-7043
棚	-7044
橄	-7045
歪	-7046
湮	-7047
琐	-7048
秃	-7049
篝	-7050
粹	-7051
肿	-7052
萤	-7053
蓬	-7054
薇	-7055
贺	-7056
赔	-7057
逮	-7058
钓	-7059
钥	-7060
霉	-7061
乞	-7062
佑	-7063
兼	-7064
励	-7065
勺	-7066
县	-7067
哒	-7068
垮	-7069
堤	-7070
嵌	-7071
巷	-7072
彗	-7073
捏	-7074
搅	-7075
汁	-7076
浊	-7077
涨	-7078
添	-7079
焊	-7080
甄	-7081
畸	-7082
穆	-7083
肮	-7084
腔	-7085
萌	-7086
蜴	-7087
蟹	-7088
衍	-7089
诵	-7090
谍	-7091
购	-7092
跪	-7093
锥	-7094
雇	-7095
霜	-7096
―	-7097
劈	-7098
峭	-7099
崭	-7100
愈	-7101
扛	-7102
拚	-7103
拷	-7104
捅	-7105
搂	-7106
栗	-7107
棱	-7108
橘	-7109
汰	-7110
泻	-7111
涩	-7112
涸	-7113
焉	-7114
玲	-7115
瓷	-7116
甘	-7117
窖	-7118
绰	-7119
翁	-7120
脾	-7121
舔	-7122
贡	-7123
账	-7124
趁	-7125
阁	-7126
飓	-7127
饶	-7128
鸽	-7129
勘	-7130
厢	-7131
叨	-7132
咀	-7133
嗒	-7134
嗽	-7135
塘	-7136
夷	-7137
奴	-7138
姻	-7139
媚	-7140
屠	-7141
惕	-7142
憎	-7143
憔	-7144
抡	-7145
拧	-7146
捣	-7147
掷	-7148
曦	-7149
株	-7150
棍	-7151
歩	-7152
氏	-7153
沽	-7154
熵	-7155
硝	-7156
硫	-7157
窟	-7158
簇	-7159
绑	-7160
绷	-7161
翠	-7162
胚	-7163
腥	-7164
蓄	-7165
蜜	-7166
袅	-7167
觑	-7168
诊	-7169
贸	-7170
赋	-7171
趴	-7172
蹬	-7173
遏	-7174
郎	-7175
霓	-7176
丫	-7177
丸	-7178
仆	-7179
哆	-7180
售	-7181
嗦	-7182
垫	-7183
妄	-7184
妥	-7185
娱	-7186
尿	-7187
巅	-7188
忡	-7189
悴	-7190
抄	-7191
搐	-7192
攫	-7193
昌	-7194
朽	-7195
歧	-7196
浇	-7197
滥	-7198
澡	-7199
眯	-7200
瞒	-7201
藤	-7202
蛙	-7203
蟒	-7204
辅	-7205
辱	-7206
逗	-7207
靴	-7208
颂	-7209
颈	-7210
鳞	-7211
]	-7212
俘	-7213
凤	-7214
刊	-7215
咋	-7216
喉	-7217
嘱	-7218
噬	-7219
壶	-7220
奈	-7221
妓	-7222
惹	-7223
査	-7224
梧	-7225
棺	-7226
橇	-7227
殖	-7228
毙	-7229
泵	-7230
涕	-7231
涟	-7232
渍	-7233
湍	-7234
滋	-7235
澜	-7236
熨	-7237
狙	-7238
狮	-7239
盗	-7240
瞥	-7241
礴	-7242
稠	-7243
窜	-7244
绊	-7245
绽	-7246
缚	-7247
聆	-7248
腻	-7249
芦	-7250
虾	-7251
践	-7252
辣	-7253
钩	-7254
闯	-7255
鞘	-7256
鞭	-7257
鹿	-7258
=	-7259
x	-7260
乒	-7261
乓	-7262
乖	-7263
冕	-7264
函	-7265
匕	-7266
叭	-7267
吩	-7268
咆	-7269
哺	-7270
唾	-7271
喋	-7272
嚷	-7273
妖	-7274
媳	-7275
寝	-7276
寡	-7277
屯	-7278
巍	-7279
忏	-7280
悍	-7281
戎	-7282
拘	-7283
斩	-7284
昧	-7285
桦	-7286
榻	-7287
泽	-7288
炫	-7289
狞	-7290
瘠	-7291
碱	-7292
祸	-7293
禽	-7294
窥	-7295
簸	-7296
藻	-7297
虔	-7298
裕	-7299
褂	-7300
诬	-7301
踩	-7302
蹄	-7303
蹦	-7304
迂	-7305
铲	-7306
闸	-7307
阈	-7308
颓	-7309
骼	-7310
+	-7311
侣	-7312
侥	-7313
僚	-7314
吾	-7315
呓	-7316
唬	-7317
啼	-7318
喇	-7319
嘘	-7320
噜	-7321
噢	-7322
嚓	-7323
孟	-7324
宰	-7325
巫	-7326
庙	-7327
廉	-7328
悯	-7329
悸	-7330
懈	-7331
扮	-7332
拱	-7333
捶	-7334
揉	-7335
撩	-7336
斓	-7337
旨	-7338
晦	-7339
杠	-7340
桅	-7341
梳	-7342
汐	-7343
淤	-7344
漪	-7345
煮	-7346
猿	-7347
疮	-7348
碾	-7349
磺	-7350
稼	-7351
簿	-7352
绣	-7353
肝	-7354
脂	-7355
荫	-7356
蔬	-7357
蜗	-7358
赚	-7359
踹	-7360
辜	-7361
逾	-7362
铝	-7363
镍	-7364
雳	-7365
鲨	-7366
黏	-7367
@	-7368
k	-7369
α	-7370
丹	-7371
俺	-7372
傅	-7373
冀	-7374
冗	-7375
募	-7376
咣	-7377
哮	-7378
啃	-7379
垒	-7380
垛	-7381
姬	-7382
寺	-7383
屉	-7384
屿	-7385
巳	-7386
恕	-7387
慕	-7388
憋	-7389
拇	-7390
掐	-7391
揍	-7392
搁	-7393
撇	-7394
撬	-7395
旺	-7396
曜	-7397
朕	-7398
栈	-7399
棉	-7400
渣	-7401
漾	-7402
濒	-7403
瀚	-7404
炊	-7405
狡	-7406
猝	-7407
珥	-7408
璀	-7409
璨	-7410
瓣	-7411
睽	-7412
瞰	-7413
秆	-7414
绎	-7415
脯	-7416
舵	-7417
荐	-7418
蔚	-7419
订	-7420
讳	-7421
贪	-7422
赴	-7423
跋	-7424
跚	-7425
跺	-7426
蹒	-7427
酬	-7428
醺	-7429
铸	-7430
阀	-7431
霹	-7432
馨	-7433
[	-7434
丐	-7435
乃	-7436
亢	-7437
俊	-7438
兑	-7439
剐	-7440
哎	-7441
唔	-7442
嗜	-7443
囱	-7444
垄	-7445
堕	-7446
寥	-7447
崛	-7448
巢	-7449
巿	-7450
庸	-7451
弛	-7452
恙	-7453
恳	-7454
惶	-7455
愁	-7456
愕	-7457
戛	-7458
敛	-7459
晒	-7460
暑	-7461
栖	-7462
栽	-7463
桐	-7464
橙	-7465
氨	-7466
汾	-7467
沦	-7468
洽	-7469
淀	-7470
炒	-7471
烙	-7472
熏	-7473
犁	-7474
碟	-7475
稽	-7476
筹	-7477
箔	-7478
篡	-7479
绅	-7480
羡	-7481
肆	-7482
肖	-7483
舀	-7484
舆	-7485
苹	-7486
莉	-7487
葫	-7488
蜥	-7489
蝇	-7490
詹	-7491
讶	-7492
贼	-7493
赎	-7494
辟	-7495
逛	-7496
逢	-7497
酱	-7498
钞	-7499
锡	-7500
陡	-7501
隶	-7502
雹	-7503
霆	-7504
馅	-7505
驴	-7506
髓	-7507
龟	-7508
|	-7509
侍	-7510
兜	-7511
冶	-7512
凳	-7513
刨	-7514
厕	-7515
吋	-7516
咙	-7517
咝	-7518
嘤	-7519
坞	-7520
墩	-7521
奸	-7522
婉	-7523
宠	-7524
幂	-7525
幺	-7526
怡	-7527
悖	-7528
愧	-7529
拽	-7530
挟	-7531
挫	-7532
揽	-7533
搓	-7534
擅	-7535
柏	-7536
棘	-7537
楠	-7538
榈	-7539
槐	-7540
槟	-7541
氯	-7542
汤	-7543
浦	-7544
涅	-7545
烷	-7546
烹	-7547
煎	-7548
犀	-7549
狰	-7550
珑	-7551
畔	-7552
瘾	-7553
眺	-7554
睫	-7555
睬	-7556
睿	-7557
瞧	-7558
瞩	-7559
矣	-7560
砌	-7561
礁	-7562
秸	-7563
稻	-7564
窿	-7565
箍	-7566
簧	-7567
粥	-7568
粪	-7569
耿	-7570
腋	-7571
茂	-7572
茅	-7573
萎	-7574
萦	-7575
董	-7576
蜒	-7577
蜷	-7578
裙	-7579
诈	-7580
诧	-7581
豚	-7582
辽	-7583
韵	-7584
颊	-7585
鹤	-7586
黝	-7587
〉	-7588
俏	-7589
偎	-7590
僧	-7591
冉	-7592
匪	-7593
卜	-7594
叽	-7595
吭	-7596
呛	-7597
呷	-7598
咦	-7599
咯	-7600
咸	-7601
哽	-7602
嘈	-7603
嘎	-7604
噎	-7605
噗	-7606
嚎	-7607
嚣	-7608
囔	-7609
囚	-7610
壑	-7611
奠	-7612
娶	-7613
婊	-7614
嫡	-7615
寞	-7616
岂	-7617
徊	-7618
徘	-7619
惬	-7620
扉	-7621
扒	-7622
拭	-7623
挛	-7624
撮	-7625
晤	-7626
暇	-7627
曝	-7628
枢	-7629
枧	-7630
梢	-7631
梵	-7632
椎	-7633
楞	-7634
榨	-7635
槛	-7636
殷	-7637
毅	-7638
沥	-7639
沼	-7640
浏	-7641
溯	-7642
漓	-7643
炕	-7644
焕	-7645
煞	-7646
熬	-7647
猖	-7648
猴	-7649
瑕	-7650
瑙	-7651
疙	-7652
疚	-7653
痉	-7654
瘩	-7655
皙	-7656
睑	-7657
瞟	-7658
瞻	-7659
矗	-7660
矫	-7661
砰	-7662
砾	-7663
磐	-7664
秤	-7665
窑	-7666
籁	-7667
纂	-7668
缎	-7669
缰	-7670
翩	-7671
耙	-7672
肋	-7673
脐	-7674
舶	-7675
芝	-7676
荆	-7677
蕴	-7678
蘸	-7679
虐	-7680
蜇	-7681
袒	-7682
褥	-7683
褪	-7684
褴	-7685
褶	-7686
诣	-7687
诫	-7688
诽	-7689
谤	-7690
谴	-7691
贩	-7692
贾	-7693
酪	-7694
钦	-7695
锦	-7696
雀	-7697
馒	-7698
驼	-7699
骷	-7700
髅	-7701
鸦	-7702
鸭	-7703
鹏	-7704
～	-7705
ε	-7706
〈	-7707
丙	-7708
亥	-7709
亩	-7710
仨	-7711
佐	-7712
侃	-7713
儒	-7714
兀	-7715
兔	-7716
凰	-7717
刽	-7718
匠	-7719
卉	-7720
厮	-7721
呤	-7722
咫	-7723
哩	-7724
啾	-7725
喑	-7726
嘣	-7727
垦	-7728
埂	-7729
契	-7730
娅	-7731
娟	-7732
孝	-7733
寐	-7734
岑	-7735
峙	-7736
峨	-7737
弈	-7738
徳	-7739
惦	-7740
惺	-7741
慷	-7742
憧	-7743
憨	-7744
憬	-7745
扼	-7746
抉	-7747
拣	-7748
拴	-7749
挚	-7750
捡	-7751
揶	-7752
搀	-7753
敷	-7754
斟	-7755
昭	-7756
晖	-7757
朔	-7758
栋	-7759
椒	-7760
橱	-7761
殆	-7762
毀	-7763
沁	-7764
泞	-7765
淙	-7766
渎	-7767
湛	-7768
溉	-7769
溺	-7770
滨	-7771
潇	-7772
潦	-7773
炯	-7774
燕	-7775
犷	-7776
珊	-7777
痹	-7778
瘙	-7779
皆	-7780
矢	-7781
磕	-7782
税	-7783
筛	-7784
筝	-7785
缤	-7786
缭	-7787
羲	-7788
肪	-7789
肾	-7790
胫	-7791
苇	-7792
萝	-7793
萧	-7794
薪	-7795
藉	-7796
蜻	-7797
蜿	-7798
蝈	-7799
裔	-7800
褛	-7801
觅	-7802
诲	-7803
谊	-7804
谬	-7805
贞	-7806
贤	-7807
赐	-7808
蹭	-7809
轩	-7810
辖	-7811
辙	-7812
酌	-7813
酿	-7814
钳	-7815
铠	-7816
阐	-7817
阮	-7818
霭	-7819
韩	-7820
顷	-7821
颇	-7822
颐	-7823
颔	-7824
颖	-7825
骇	-7826
魁	-7827
鲍	-7828
鸿	-7829
↑	-7830
乾	-7831
亘	-7832
亵	-7833
佣	-7834
佬	-7835
侠	-7836
倡	-7837
冽	-7838
凿	-7839
剃	-7840
剽	-7841
劾	-7842
匿	-7843
卒	-7844
厥	-7845
厩	-7846
吝	-7847
吮	-7848
呐	-7849
哝	-7850
唠	-7851
啐	-7852
啬	-7853
喳	-7854
嗖	-7855
嗤	-7856
嘁	-7857
囯	-7858
坷	-7859
墒	-7860
妆	-7861
姣	-7862
孵	-7863
孽	-7864
宵	-7865
屡	-7866
崎	-7867
庶	-7868
彪	-7869
彰	-7870
悚	-7871
惋	-7872
惘	-7873
惮	-7874
惰	-7875
懊	-7876
戟	-7877
戳	-7878
抠	-7879
抿	-7880
捎	-7881
搔	-7882
搡	-7883
摹	-7884
攘	-7885
暧	-7886
柿	-7887
桓	-7888
楂	-7889
楔	-7890
榕	-7891
樱	-7892
橫	-7893
檐	-7894
殴	-7895
毡	-7896
汛	-7897
沓	-7898
涓	-7899
淅	-7900
淫	-7901
淸	-7902
渤	-7903
湘	-7904
漩	-7905
澎	-7906
炙	-7907
熙	-7908
爵	-7909
牡	-7910
狈	-7911
猩	-7912
猾	-7913
獠	-7914
疤	-7915
瘁	-7916
瘤	-7917
瘪	-7918
瘸	-7919
癖	-7920
盎	-7921
砚	-7922
祠	-7923
稣	-7924
窍	-7925
粱	-7926
紊	-7927
縮	-7928
纭	-7929
缄	-7930
缈	-7931
缢	-7932
缥	-7933
缴	-7934
羁	-7935
膏	-7936
芭	-7937
芳	-7938
苛	-7939
苟	-7940
茎	-7941
茸	-7942
菱	-7943
葱	-7944
蔫	-7945
蕾	-7946
薛	-7947
薯	-7948
蚪	-7949
蚱	-7950
蛾	-7951
衅	-7952
袱	-7953
豹	-7954
贱	-7955
跤	-7956
踵	-7957
郡	-7958
酗	-7959
酵	-7960
钙	-7961
铀	-7962
锄	-7963
镁	-7964
镰	-7965
阂	-7966
陕	-7967
隋	-7968
隘	-7969
雏	-7970
雯	-7971
霄	-7972
霏	-7973
霾	-7974
颁	-7975
髂	-7976
鬃	-7977
鳍	-7978
鹄	-7979
鼾	-7980
Q	-7981
^	-7982
_	-7983
`	-7984
q	-7985
z	-7986
А	-7987
Б	-7988
Г	-7989
Д	-7990
Н	-7991
Ю	-7992
丟	-7993
乍	-7994
仞	-7995
